{
  "-": 3137,
  "</s>": 1,
  "<pad>": 2,
  "<s>": 0,
  "<unk>": 3,
  "I": 3770,
  "Sty": 4980,
  "a": 381,
  "aa": 751,
  "ab": 1560,
  "abbling": 3027,
  "abin": 4474,
  "able": 920,
  "ables": 90,
  "ably": 4716,
  "about": 1856,
  "above": 4119,
  "ac": 2759,
  "acc": 3366,
  "accompan": 945,
  "accompanied": 5026,
  "aces": 3457,
  "ach": 3291,
  "ache": 4462,
  "acing": 122,
  "ack": 2141,
  "acker": 4743,
  "acking": 2740,
  "acks": 3062,
  "acle": 4269,
  "acon": 4912,
  "action": 2944,
  "activate": 4205,
  "activated": 4437,
  "active": 1497,
  "activity": 1196,
  "actory": 2644,
  "actually": 1780,
  "ad": 1218,
  "adas": 1514,
  "added": 3331,
  "adding": 1805,
  "addle": 343,
  "address": 2258,
  "ade": 3786,
  "aded": 969,
  "ades": 3659,
  "adic": 2039,
  "ading": 2219,
  "adjusted": 5179,
  "adow": 1095,
  "adows": 1972,
  "ads": 5363,
  "adult": 2116,
  "af": 2458,
  "affected": 5443,
  "after": 1482,
  "ag": 5608,
  "again": 137,
  "against": 1425,
  "aged": 2260,
  "ages": 3223,
  "agging": 834,
  "aggressive": 140,
  "aging": 297,
  "ags": 1723,
  "ague": 839,
  "ail": 3576,
  "ailing": 2642,
  "ails": 837,
  "ain": 4575,
  "ained": 2971,
  "ains": 3830,
  "aint": 3838,
  "air": 65,
  "ak": 136,
  "aked": 14,
  "aken": 5304,
  "aker": 3148,
  "akes": 1824,
  "aking": 4352,
  "aks": 2348,
  "aky": 3631,
  "al": 3521,
  "alert": 3080,
  "ales": 1463,
  "alien": 2261,
  "aling": 5376,
  "alk": 1757,
  "all": 5811,
  "allic": 268,
  "alling": 5545,
  "allow": 4837,
  "allowed": 2956,
  "allows": 2204,
  "alls": 2751,
  "almost": 5927,
  "alone": 2987,
  "along": 1314,
  "als": 2714,
  "also": 4068,
  "altern": 4309,
  "although": 472,
  "always": 2552,
  "am": 4017,
  "amb": 1529,
  "ambling": 2207,
  "ames": 4283,
  "amic": 264,
  "among": 5721,
  "amount": 1141,
  "ams": 2304,
  "an": 1765,
  "ance": 2118,
  "anches": 3691,
  "ancy": 5616,
  "and": 3260,
  "ander": 3275,
  "ane": 1937,
  "ang": 3288,
  "ange": 5318,
  "anged": 5449,
  "anges": 979,
  "anging": 4846,
  "angle": 2374,
  "angled": 1559,
  "angles": 1951,
  "angling": 3097,
  "angs": 5679,
  "anim": 1412,
  "animal": 3093,
  "aning": 2665,
  "ank": 3277,
  "anked": 3284,
  "anking": 3297,
  "anks": 3892,
  "ann": 5743,
  "another": 5159,
  "ans": 335,
  "answer": 5883,
  "ant": 5691,
  "antly": 927,
  "any": 1586,
  "anything": 1845,
  "ap": 5246,
  "ape": 1833,
  "aper": 941,
  "apers": 1149,
  "aph": 3574,
  "aping": 3267,
  "app": 5598,
  "apped": 4921,
  "apper": 1806,
  "apping": 694,
  "aps": 3869,
  "ar": 749,
  "ards": 104,
  "are": 5555,
  "area": 1568,
  "ared": 770,
  "ares": 5257,
  "argo": 5480,
  "aring": 5295,
  "arl": 4938,
  "arling": 2747,
  "arm": 3242,
  "armac": 3141,
  "arming": 5391,
  "arms": 1117,
  "around": 222,
  "arp": 2979,
  "arr": 3957,
  "ars": 1302,
  "arsh": 1655,
  "art": 4625,
  "arts": 3081,
  "ary": 1104,
  "as": 4384,
  "asc": 5578,
  "ase": 1126,
  "ases": 4113,
  "ash": 5909,
  "ashed": 5466,
  "ashes": 5536,
  "ashing": 1940,
  "asing": 189,
  "asionally": 2909,
  "ass": 5957,
  "assembled": 3529,
  "assembly": 2364,
  "asses": 4940,
  "astic": 3488,
  "asting": 4976,
  "at": 276,
  "atched": 1374,
  "atching": 1330,
  "ate": 2824,
  "ated": 2412,
  "ately": 1177,
  "ates": 1623,
  "atic": 1288,
  "atically": 1456,
  "ating": 94,
  "ation": 5347,
  "ations": 2496,
  "atively": 3760,
  "ato": 3635,
  "ators": 5840,
  "atory": 5187,
  "ats": 3178,
  "att": 5296,
  "atted": 1610,
  "atter": 1323,
  "attered": 5082,
  "attering": 2736,
  "atters": 214,
  "attle": 1354,
  "atus": 1533,
  "auc": 1855,
  "aud": 5833,
  "audio": 1927,
  "aul": 1651,
  "aund": 692,
  "aur": 1664,
  "ause": 2404,
  "aut": 1326,
  "auto": 765,
  "automatic": 3144,
  "av": 3034,
  "available": 918,
  "avement": 3764,
  "aver": 295,
  "average": 1779,
  "aves": 3766,
  "avy": 3005,
  "aw": 5027,
  "awa": 4790,
  "away": 1952,
  "awed": 221,
  "awk": 5664,
  "awks": 1089,
  "aws": 2784,
  "axe": 1834,
  "aying": 1301,
  "ays": 3883,
  "b": 5953,
  "ba": 1005,
  "baby": 5815,
  "back": 1977,
  "backed": 3588,
  "background": 4016,
  "backs": 4084,
  "bad": 2830,
  "bag": 5151,
  "bage": 2187,
  "bags": 5603,
  "balanced": 2332,
  "ball": 3939,
  "balls": 403,
  "ban": 980,
  "band": 5358,
  "bang": 5372,
  "bank": 2119,
  "bar": 4989,
  "bare": 4480,
  "base": 2239,
  "basketball": 995,
  "bass": 3531,
  "bat": 5722,
  "bath": 5604,
  "bay": 1895,
  "bb": 4076,
  "be": 806,
  "beam": 3375,
  "beans": 2036,
  "bearing": 4521,
  "beat": 409,
  "beaut": 4633,
  "because": 153,
  "bed": 4927,
  "bee": 1926,
  "been": 2037,
  "beer": 3486,
  "bees": 3060,
  "before": 4550,
  "begin": 4957,
  "behind": 3626,
  "being": 5121,
  "bell": 5914,
  "below": 5828,
  "belt": 2205,
  "bench": 3487,
  "bending": 3805,
  "bent": 4059,
  "ber": 1919,
  "between": 3613,
  "big": 2864,
  "bike": 2529,
  "bin": 1114,
  "bing": 852,
  "bird": 2097,
  "birds": 2035,
  "bit": 1166,
  "bits": 2838,
  "bl": 2923,
  "black": 436,
  "blade": 1418,
  "blast": 5627,
  "ble": 2641,
  "bled": 1371,
  "bles": 4504,
  "blind": 497,
  "bling": 262,
  "block": 2511,
  "blocks": 1910,
  "blow": 5180,
  "blown": 5182,
  "bly": 4274,
  "bo": 1268,
  "board": 3888,
  "boards": 3268,
  "boat": 513,
  "body": 4334,
  "bolt": 27,
  "bone": 1607,
  "book": 1527,
  "books": 3725,
  "both": 184,
  "bott": 4866,
  "bottom": 234,
  "bow": 2407,
  "bowl": 5734,
  "box": 5156,
  "boxes": 4306,
  "boxing": 12,
  "boy": 2579,
  "boys": 2608,
  "br": 5535,
  "bra": 1083,
  "bre": 2331,
  "break": 2001,
  "breaking": 188,
  "breaks": 698,
  "brew": 4711,
  "bridge": 1963,
  "bringing": 5923,
  "bro": 220,
  "broken": 3945,
  "brush": 5195,
  "bs": 396,
  "bub": 4028,
  "buff": 4612,
  "buffer": 1565,
  "bug": 4765,
  "bugs": 3501,
  "build": 2912,
  "building": 4166,
  "built": 2397,
  "bur": 5870,
  "burn": 1923,
  "burning": 794,
  "burst": 1029,
  "bus": 5085,
  "bush": 173,
  "business": 5446,
  "but": 4169,
  "button": 3755,
  "buy": 3611,
  "by": 24,
  "c": 3564,
  "cal": 621,
  "call": 2292,
  "called": 3654,
  "calling": 3614,
  "camera": 1797,
  "camp": 1933,
  "can": 5620,
  "cand": 3518,
  "cap": 2043,
  "caps": 4221,
  "car": 3226,
  "card": 5499,
  "cards": 3558,
  "care": 1001,
  "carry": 4555,
  "cars": 200,
  "cart": 2240,
  "case": 2003,
  "cash": 3057,
  "cat": 3113,
  "catch": 2343,
  "catching": 3582,
  "cats": 1084,
  "cause": 1143,
  "cd": 1823,
  "ce": 2126,
  "cean": 4758,
  "ceans": 1764,
  "ced": 2346,
  "cel": 2738,
  "celer": 1852,
  "cell": 5403,
  "cellaneous": 4040,
  "center": 4042,
  "cer": 1844,
  "certain": 2978,
  "ces": 4310,
  "ch": 990,
  "chain": 2920,
  "chains": 803,
  "chair": 5400,
  "chairs": 1550,
  "chan": 2711,
  "change": 406,
  "changed": 4273,
  "changes": 3182,
  "changing": 5342,
  "channel": 4562,
  "chant": 2870,
  "charge": 5858,
  "charges": 4494,
  "chat": 1984,
  "che": 3426,
  "check": 5692,
  "checking": 4667,
  "checks": 1057,
  "ched": 5357,
  "chedel": 111,
  "cher": 4444,
  "ches": 3617,
  "chet": 2449,
  "child": 4733,
  "children": 3485,
  "ching": 4077,
  "chip": 2895,
  "cho": 4528,
  "church": 162,
  "cigarette": 1279,
  "cil": 5237,
  "cing": 3020,
  "circle": 3628,
  "city": 1272,
  "ck": 2438,
  "cker": 2030,
  "cking": 3778,
  "cks": 4567,
  "cl": 2948,
  "class": 697,
  "cle": 2213,
  "clean": 399,
  "clear": 2131,
  "click": 3212,
  "clip": 121,
  "clips": 106,
  "clock": 3387,
  "close": 1934,
  "closed": 3241,
  "cloth": 1843,
  "cloud": 247,
  "club": 1572,
  "co": 1625,
  "coat": 2137,
  "cock": 2580,
  "code": 3656,
  "coin": 4082,
  "coins": 3532,
  "col": 5814,
  "cold": 2819,
  "coll": 4129,
  "collar": 3750,
  "collect": 2327,
  "collection": 2211,
  "com": 4963,
  "comb": 4440,
  "come": 1696,
  "comes": 2523,
  "coming": 4416,
  "comm": 3994,
  "comment": 1138,
  "commercial": 4525,
  "common": 2295,
  "communication": 170,
  "comp": 1999,
  "company": 2871,
  "complete": 648,
  "completely": 101,
  "complex": 5592,
  "computer": 729,
  "con": 3395,
  "concert": 5872,
  "condition": 4835,
  "conference": 1863,
  "cons": 2779,
  "conserv": 3503,
  "const": 376,
  "cont": 5401,
  "contact": 3283,
  "contained": 2888,
  "container": 269,
  "containing": 3951,
  "contin": 909,
  "continue": 1131,
  "control": 5538,
  "controlled": 592,
  "cook": 2619,
  "cooked": 4971,
  "cop": 622,
  "copy": 717,
  "cor": 2790,
  "corn": 2122,
  "could": 4143,
  "counter": 4515,
  "country": 1858,
  "course": 5056,
  "court": 5345,
  "cover": 3849,
  "covered": 5287,
  "cow": 5402,
  "cr": 5689,
  "cre": 1483,
  "cream": 1109,
  "create": 1061,
  "created": 3232,
  "crete": 658,
  "crim": 5354,
  "crit": 5703,
  "cro": 4929,
  "cross": 3305,
  "crow": 3707,
  "cry": 4623,
  "ction": 817,
  "cup": 2437,
  "current": 528,
  "currently": 113,
  "cussion": 3040,
  "custom": 1493,
  "cut": 1830,
  "cuts": 1462,
  "cutting": 1896,
  "cy": 771,
  "cycl": 2975,
  "cycle": 4499,
  "cycles": 342,
  "d": 3828,
  "dam": 2419,
  "dark": 2691,
  "day": 5264,
  "de": 3735,
  "dead": 4050,
  "deal": 4568,
  "deck": 232,
  "deep": 4374,
  "del": 4360,
  "delay": 1250,
  "dep": 5943,
  "der": 5829,
  "desc": 5006,
  "despite": 5167,
  "device": 4843,
  "dial": 2542,
  "did": 2291,
  "die": 600,
  "dies": 1162,
  "different": 3143,
  "dig": 3710,
  "digital": 5622,
  "din": 1154,
  "ding": 5935,
  "direction": 3679,
  "dirty": 5125,
  "dis": 1283,
  "disk": 3526,
  "display": 404,
  "dist": 3794,
  "distance": 4300,
  "do": 3662,
  "document": 4992,
  "does": 5785,
  "dog": 3566,
  "dogs": 1058,
  "doing": 3293,
  "done": 3170,
  "door": 423,
  "doors": 226,
  "down": 1453,
  "downs": 4998,
  "dozen": 2111,
  "dr": 4295,
  "draw": 1988,
  "drawn": 1661,
  "dress": 1373,
  "dri": 3431,
  "drive": 4297,
  "driven": 3220,
  "driver": 4457,
  "drivers": 2000,
  "driving": 1751,
  "dro": 3717,
  "drop": 3565,
  "dropping": 3716,
  "drops": 535,
  "dry": 3757,
  "du": 2699,
  "duct": 1669,
  "due": 3615,
  "dump": 3851,
  "during": 5639,
  "dust": 1039,
  "e": 3698,
  "each": 3557,
  "ead": 586,
  "eal": 2385,
  "ealing": 2230,
  "eals": 3249,
  "ear": 5020,
  "earing": 1990,
  "early": 5012,
  "ears": 3796,
  "earth": 46,
  "easy": 3649,
  "eat": 4010,
  "eating": 2843,
  "ech": 4722,
  "echo": 118,
  "ed": 4916,
  "ede": 1097,
  "edes": 2165,
  "edge": 1448,
  "eding": 4589,
  "eds": 4180,
  "een": 4848,
  "ees": 2949,
  "effect": 611,
  "effects": 4048,
  "egg": 144,
  "eight": 1939,
  "either": 145,
  "ek": 1875,
  "eking": 4725,
  "eks": 483,
  "el": 1222,
  "elect": 4762,
  "electric": 5235,
  "eled": 4278,
  "eling": 797,
  "ellig": 3446,
  "ells": 3043,
  "els": 5208,
  "else": 4642,
  "elve": 3921,
  "emaker": 5414,
  "eman": 517,
  "emer": 49,
  "emphasis": 5901,
  "employ": 4690,
  "empt": 3499,
  "empty": 5484,
  "en": 1227,
  "ence": 25,
  "ences": 1585,
  "end": 478,
  "ended": 5030,
  "ending": 1576,
  "ends": 3765,
  "ened": 1157,
  "ener": 2831,
  "eng": 1147,
  "engers": 2408,
  "engine": 2103,
  "engineering": 1048,
  "ening": 2098,
  "enn": 4030,
  "enough": 1731,
  "ens": 1295,
  "ense": 491,
  "enses": 3676,
  "ent": 5170,
  "entary": 1554,
  "enter": 5014,
  "ently": 704,
  "entry": 5712,
  "ents": 2488,
  "environment": 4763,
  "ep": 2851,
  "eper": 4540,
  "eping": 1522,
  "eps": 637,
  "equ": 3956,
  "er": 2182,
  "erie": 4458,
  "ering": 1645,
  "ern": 3965,
  "err": 1849,
  "ers": 1724,
  "ersed": 2657,
  "ery": 599,
  "es": 519,
  "escal": 67,
  "escape": 3785,
  "ese": 4600,
  "especially": 2108,
  "est": 2264,
  "estone": 5189,
  "et": 4700,
  "eteria": 5088,
  "eth": 2664,
  "etr": 3030,
  "ets": 2008,
  "ettle": 3198,
  "even": 3134,
  "event": 4752,
  "ever": 2072,
  "every": 1548,
  "everyone": 1212,
  "everything": 3493,
  "ew": 1646,
  "eway": 4388,
  "ex": 1260,
  "except": 3629,
  "exit": 4022,
  "expl": 829,
  "extreme": 5351,
  "extremely": 3607,
  "ez": 11,
  "f": 2109,
  "fab": 1980,
  "face": 1252,
  "fair": 5756,
  "fall": 400,
  "falls": 1678,
  "family": 707,
  "fan": 4792,
  "far": 2643,
  "farm": 5700,
  "fashion": 614,
  "fashioned": 1249,
  "fast": 4241,
  "fat": 3944,
  "father": 165,
  "feat": 2112,
  "feature": 636,
  "features": 1011,
  "fed": 3726,
  "feed": 1386,
  "feeding": 3627,
  "feet": 2058,
  "fell": 4761,
  "felt": 4979,
  "female": 1000,
  "fer": 36,
  "few": 2885,
  "ffee": 5420,
  "ffic": 9,
  "fiction": 5435,
  "field": 5660,
  "fight": 5711,
  "fighting": 2946,
  "file": 3548,
  "files": 4585,
  "fill": 3737,
  "filled": 241,
  "film": 3993,
  "filter": 553,
  "final": 1756,
  "find": 579,
  "fing": 353,
  "finger": 5034,
  "finished": 2082,
  "fire": 3133,
  "fired": 4106,
  "fires": 4043,
  "first": 2649,
  "fish": 5885,
  "five": 3632,
  "fix": 2372,
  "fixed": 2834,
  "fl": 5473,
  "flag": 2504,
  "flame": 5861,
  "flat": 4684,
  "flies": 5496,
  "flight": 3444,
  "float": 3458,
  "floor": 1986,
  "flow": 858,
  "flows": 4849,
  "flu": 4808,
  "flush": 3916,
  "fly": 4303,
  "flying": 2115,
  "fo": 2600,
  "focus": 3605,
  "fol": 4909,
  "fold": 3715,
  "follow": 3695,
  "food": 1344,
  "foot": 4579,
  "for": 2880,
  "force": 3336,
  "forced": 1666,
  "forest": 4314,
  "fork": 2848,
  "form": 2409,
  "formed": 2367,
  "forming": 1796,
  "forms": 4188,
  "forth": 1395,
  "forward": 5871,
  "found": 195,
  "four": 4558,
  "fourth": 146,
  "frame": 4692,
  "fre": 1677,
  "free": 3406,
  "frequency": 4967,
  "fresh": 2540,
  "fried": 3696,
  "friendly": 4041,
  "friends": 1016,
  "frog": 722,
  "from": 1708,
  "front": 2630,
  "fuel": 2735,
  "ful": 1136,
  "full": 1722,
  "fully": 3913,
  "fun": 988,
  "function": 1256,
  "g": 1899,
  "gain": 4254,
  "gall": 5658,
  "game": 5678,
  "games": 811,
  "gap": 2794,
  "gar": 5549,
  "gas": 5136,
  "gate": 5348,
  "ge": 1618,
  "gear": 1127,
  "gee": 2873,
  "gency": 4417,
  "gener": 4897,
  "general": 3609,
  "generated": 4577,
  "gent": 1719,
  "gently": 1546,
  "ger": 392,
  "ges": 2609,
  "get": 2099,
  "gets": 5752,
  "getting": 1808,
  "ghost": 4533,
  "ging": 1957,
  "gins": 1179,
  "girl": 5438,
  "girls": 3673,
  "give": 5537,
  "given": 428,
  "giving": 1450,
  "gl": 5193,
  "glass": 3942,
  "go": 2907,
  "going": 211,
  "gone": 4362,
  "good": 5717,
  "got": 4228,
  "gr": 2009,
  "grad": 4876,
  "grain": 3009,
  "grand": 178,
  "grass": 3665,
  "grave": 2225,
  "gravity": 2194,
  "gre": 559,
  "great": 1918,
  "green": 846,
  "gro": 2785,
  "ground": 1273,
  "grounds": 1886,
  "group": 1571,
  "groups": 3987,
  "grow": 2153,
  "growing": 420,
  "grown": 665,
  "growth": 4251,
  "gu": 4823,
  "guard": 5249,
  "gun": 1303,
  "guns": 2333,
  "guy": 5113,
  "h": 756,
  "ha": 4215,
  "had": 4146,
  "hair": 2555,
  "hal": 5781,
  "half": 5826,
  "hall": 369,
  "hammer": 5834,
  "hand": 1067,
  "handle": 3818,
  "handled": 2454,
  "hands": 2926,
  "happy": 1383,
  "hard": 3799,
  "harm": 5900,
  "has": 5447,
  "have": 5245,
  "having": 1733,
  "hawk": 832,
  "he": 1741,
  "head": 4282,
  "heading": 1878,
  "heads": 3111,
  "heard": 2919,
  "heart": 4939,
  "heat": 5355,
  "heavy": 2532,
  "hed": 5798,
  "height": 4294,
  "held": 2330,
  "hen": 4591,
  "hens": 5749,
  "her": 186,
  "here": 5773,
  "hered": 442,
  "herent": 19,
  "hes": 4635,
  "hetic": 3229,
  "high": 3019,
  "higher": 3294,
  "highly": 1090,
  "hill": 5697,
  "him": 286,
  "hing": 4812,
  "his": 3871,
  "hit": 4340,
  "hitting": 4212,
  "ho": 993,
  "holder": 1523,
  "holding": 921,
  "hole": 3719,
  "holes": 307,
  "home": 266,
  "hon": 1338,
  "hood": 848,
  "horn": 5360,
  "horse": 2334,
  "hospital": 5145,
  "hot": 1929,
  "hour": 3907,
  "hours": 1201,
  "house": 2653,
  "houses": 2854,
  "how": 5192,
  "huge": 1024,
  "hum": 4880,
  "human": 3244,
  "humans": 1974,
  "hung": 1309,
  "ial": 3639,
  "ially": 4677,
  "iano": 2351,
  "iary": 2875,
  "ible": 2172,
  "ibly": 2472,
  "ibr": 4973,
  "ic": 4390,
  "ica": 4160,
  "ical": 1847,
  "ically": 4751,
  "icate": 331,
  "ice": 5888,
  "ices": 5093,
  "icians": 1945,
  "ick": 785,
  "icken": 5080,
  "ickets": 2352,
  "icking": 4764,
  "icks": 3421,
  "icle": 3023,
  "icles": 398,
  "ics": 4884,
  "ict": 357,
  "icy": 180,
  "id": 334,
  "iddles": 4054,
  "iddling": 4770,
  "ident": 1192,
  "identified": 5453,
  "ides": 5868,
  "iding": 762,
  "ids": 2929,
  "ie": 5659,
  "ience": 801,
  "ient": 544,
  "ier": 577,
  "iers": 460,
  "ies": 2577,
  "iets": 2398,
  "if": 928,
  "iff": 5619,
  "iffs": 447,
  "ifice": 1970,
  "ificial": 4448,
  "ified": 4933,
  "ifies": 2758,
  "ift": 5762,
  "ifting": 2060,
  "ifts": 4312,
  "iful": 3221,
  "ig": 4574,
  "igg": 2038,
  "ight": 5810,
  "ign": 1754,
  "igs": 5959,
  "ikes": 5383,
  "il": 1328,
  "ild": 3115,
  "ile": 1506,
  "iles": 2760,
  "ilet": 4027,
  "iling": 3918,
  "ill": 3645,
  "illed": 3032,
  "illing": 4358,
  "ills": 5303,
  "illy": 35,
  "ils": 469,
  "ily": 2174,
  "im": 1490,
  "ime": 5052,
  "iment": 3464,
  "imes": 4687,
  "immer": 2306,
  "imp": 620,
  "ims": 3202,
  "imsy": 2856,
  "in": 5292,
  "ina": 2772,
  "inate": 4302,
  "inated": 1893,
  "inates": 986,
  "inating": 1358,
  "includes": 4643,
  "including": 4759,
  "increasing": 1298,
  "inct": 2228,
  "ind": 2057,
  "inder": 5405,
  "inding": 4638,
  "individual": 3246,
  "indust": 430,
  "industrial": 4544,
  "ine": 2355,
  "inent": 3616,
  "inery": 2783,
  "ines": 926,
  "information": 5915,
  "ing": 1036,
  "inging": 3408,
  "ingle": 2032,
  "ings": 5025,
  "ingu": 280,
  "inguishable": 4270,
  "ining": 177,
  "init": 2309,
  "ink": 2045,
  "inking": 5062,
  "inkle": 1394,
  "inks": 4587,
  "inn": 5542,
  "inner": 4429,
  "inning": 4284,
  "ins": 2188,
  "inside": 3711,
  "int": 5191,
  "intensity": 1914,
  "inter": 961,
  "interesting": 2462,
  "internal": 2226,
  "interrupted": 2495,
  "into": 325,
  "ion": 2489,
  "ions": 1229,
  "ious": 2998,
  "iously": 82,
  "ip": 772,
  "iper": 675,
  "ipers": 1150,
  "ipes": 5715,
  "ipment": 730,
  "ipp": 293,
  "ipped": 2441,
  "ipper": 1563,
  "ippers": 1987,
  "ipping": 3389,
  "ipples": 4512,
  "ips": 895,
  "ir": 4344,
  "ird": 923,
  "iren": 2869,
  "irens": 3689,
  "irl": 3264,
  "irling": 5498,
  "irm": 5602,
  "iron": 3510,
  "irrel": 5731,
  "irs": 1683,
  "irt": 215,
  "irteen": 2587,
  "is": 3602,
  "isc": 5238,
  "ise": 4493,
  "isel": 863,
  "ises": 346,
  "ish": 5044,
  "ishes": 2527,
  "ishing": 3852,
  "ishy": 3489,
  "isk": 397,
  "iss": 3361,
  "issors": 3237,
  "ist": 3917,
  "istant": 235,
  "istent": 4982,
  "ister": 2781,
  "istle": 1584,
  "isy": 1846,
  "it": 891,
  "itates": 3285,
  "itating": 1549,
  "item": 4073,
  "items": 71,
  "ites": 5337,
  "ities": 1372,
  "iting": 2672,
  "ition": 5023,
  "itions": 4970,
  "itive": 1408,
  "its": 4468,
  "itter": 2927,
  "itting": 2339,
  "iture": 4516,
  "ity": 5378,
  "ium": 488,
  "ival": 3667,
  "ive": 798,
  "ively": 582,
  "ives": 2724,
  "iving": 5961,
  "iz": 4841,
  "ization": 2850,
  "izations": 5470,
  "ize": 4730,
  "ized": 5134,
  "izer": 3059,
  "izes": 1602,
  "izing": 2422,
  "izz": 4496,
  "izzle": 5522,
  "j": 4335,
  "jack": 5554,
  "jar": 5465,
  "je": 3846,
  "jet": 1041,
  "jing": 900,
  "jo": 1667,
  "job": 5362,
  "join": 5098,
  "joined": 3359,
  "joining": 5580,
  "joy": 1110,
  "jug": 3610,
  "just": 4242,
  "k": 3709,
  "ka": 4459,
  "ked": 825,
  "keep": 350,
  "keeping": 1416,
  "kept": 2682,
  "kes": 1821,
  "key": 310,
  "keys": 1060,
  "kid": 1055,
  "kids": 4156,
  "killing": 4611,
  "kind": 2707,
  "king": 355,
  "kn": 3590,
  "knife": 4746,
  "ks": 1710,
  "l": 3374,
  "lab": 5451,
  "lag": 4422,
  "lake": 5035,
  "lam": 2984,
  "land": 2406,
  "lands": 5495,
  "lap": 279,
  "larg": 1879,
  "large": 5087,
  "last": 5059,
  "lat": 2753,
  "late": 3439,
  "later": 3771,
  "laugh": 4511,
  "laughs": 2482,
  "laughter": 4551,
  "layer": 3046,
  "ld": 4996,
  "le": 141,
  "lead": 2047,
  "leading": 1513,
  "leaf": 672,
  "leans": 2476,
  "leave": 4489,
  "led": 2825,
  "ledge": 2570,
  "left": 2299,
  "leg": 4460,
  "length": 5597,
  "ler": 3000,
  "lers": 2616,
  "les": 2749,
  "less": 3322,
  "let": 836,
  "lets": 4193,
  "level": 5398,
  "levels": 4151,
  "levision": 455,
  "ley": 560,
  "leys": 1464,
  "lic": 4851,
  "life": 5312,
  "lift": 1505,
  "lifting": 3161,
  "light": 870,
  "lighting": 3745,
  "lightly": 2202,
  "lights": 3985,
  "like": 3690,
  "line": 5638,
  "lines": 4004,
  "ling": 2019,
  "lings": 3136,
  "links": 4857,
  "liquid": 5514,
  "lit": 5687,
  "little": 4723,
  "live": 2667,
  "ll": 4987,
  "ller": 2301,
  "llers": 3349,
  "lling": 3400,
  "lly": 4854,
  "lo": 5640,
  "load": 1679,
  "loaded": 1799,
  "loading": 1419,
  "loads": 4227,
  "loc": 924,
  "local": 3075,
  "location": 2730,
  "lock": 4089,
  "locked": 3877,
  "locking": 866,
  "locks": 5862,
  "log": 152,
  "long": 4391,
  "look": 3831,
  "looking": 639,
  "loop": 441,
  "lost": 3977,
  "lot": 5172,
  "low": 2937,
  "lower": 3809,
  "ls": 3130,
  "ly": 5004,
  "m": 4421,
  "machine": 3504,
  "mad": 5932,
  "made": 5291,
  "magic": 5105,
  "mail": 978,
  "main": 2754,
  "major": 693,
  "make": 3835,
  "maker": 3865,
  "makes": 861,
  "making": 3832,
  "mal": 4705,
  "male": 2390,
  "man": 4425,
  "many": 630,
  "map": 198,
  "mar": 2465,
  "market": 1712,
  "mask": 3330,
  "mass": 5226,
  "massive": 1971,
  "match": 444,
  "mate": 267,
  "material": 2706,
  "matter": 822,
  "maximum": 1604,
  "may": 531,
  "maybe": 2420,
  "mb": 3156,
  "me": 4186,
  "meal": 821,
  "meat": 3085,
  "med": 1515,
  "medium": 5958,
  "meg": 103,
  "mel": 2440,
  "members": 680,
  "men": 4936,
  "ment": 4785,
  "ments": 2411,
  "mer": 2792,
  "message": 5681,
  "met": 2178,
  "metal": 4887,
  "meter": 3378,
  "method": 5399,
  "mi": 2671,
  "mic": 992,
  "mid": 3754,
  "middle": 1030,
  "might": 5816,
  "mill": 4409,
  "ming": 193,
  "minute": 2421,
  "mis": 3021,
  "missing": 5196,
  "mitt": 4291,
  "mix": 4952,
  "mo": 1936,
  "mod": 3963,
  "mode": 5571,
  "moderate": 2970,
  "modern": 3836,
  "mom": 2858,
  "mon": 3109,
  "money": 5497,
  "monkey": 4680,
  "mor": 2767,
  "more": 1437,
  "morning": 5002,
  "mos": 3937,
  "most": 2673,
  "mostly": 4523,
  "mother": 5666,
  "motion": 1465,
  "mouse": 933,
  "mouth": 4774,
  "move": 4727,
  "movie": 2955,
  "moving": 2129,
  "ms": 5032,
  "much": 4793,
  "mud": 336,
  "multiple": 712,
  "mur": 3269,
  "mus": 2494,
  "music": 3663,
  "must": 1286,
  "mut": 449,
  "my": 4487,
  "n": 5294,
  "nas": 38,
  "natural": 638,
  "nature": 5590,
  "near": 3207,
  "neck": 5521,
  "need": 1003,
  "needs": 645,
  "ness": 3941,
  "never": 78,
  "new": 4584,
  "next": 4775,
  "nice": 1098,
  "night": 1185,
  "nine": 4218,
  "ning": 2635,
  "no": 1590,
  "nob": 4959,
  "non": 5410,
  "none": 2064,
  "noon": 3912,
  "normal": 2522,
  "not": 3425,
  "note": 1670,
  "notes": 2727,
  "nothing": 862,
  "notice": 5677,
  "now": 5606,
  "noxious": 1124,
  "ns": 4276,
  "nt": 748,
  "number": 375,
  "nut": 676,
  "nuts": 2508,
  "ny": 3405,
  "o": 1259,
  "ob": 4000,
  "obile": 3546,
  "obiles": 2867,
  "object": 2709,
  "objects": 2661,
  "obs": 72,
  "ocal": 2004,
  "occ": 5061,
  "ock": 3927,
  "ocking": 2323,
  "ocks": 1137,
  "oct": 4814,
  "od": 3417,
  "oda": 115,
  "odd": 944,
  "odic": 4502,
  "oe": 1687,
  "oes": 2828,
  "of": 2952,
  "off": 2798,
  "office": 5488,
  "often": 4038,
  "ogged": 41,
  "ogging": 4172,
  "ogs": 468,
  "oil": 4882,
  "oing": 5702,
  "ok": 4535,
  "oke": 3642,
  "old": 606,
  "older": 321,
  "oll": 4052,
  "om": 5904,
  "ome": 1594,
  "omed": 1671,
  "omew": 1093,
  "oming": 490,
  "omp": 526,
  "oms": 1760,
  "on": 424,
  "once": 3420,
  "ond": 125,
  "one": 742,
  "ones": 5091,
  "ong": 5515,
  "ongo": 1598,
  "ongs": 1237,
  "onica": 3404,
  "only": 2615,
  "onto": 127,
  "ony": 2525,
  "oo": 2278,
  "ood": 1125,
  "ooky": 2550,
  "ooming": 5225,
  "oon": 3539,
  "oons": 5643,
  "oops": 4155,
  "oot": 283,
  "ooth": 602,
  "ooting": 874,
  "oots": 5418,
  "op": 2377,
  "oped": 2723,
  "open": 2095,
  "opened": 2897,
  "opening": 3924,
  "opens": 3064,
  "operated": 561,
  "operation": 4930,
  "operator": 4754,
  "oph": 2689,
  "ophone": 1481,
  "oping": 3290,
  "opping": 1161,
  "ops": 1644,
  "opter": 3050,
  "or": 3568,
  "order": 4717,
  "ords": 1317,
  "ore": 3814,
  "ored": 361,
  "organ": 4949,
  "organized": 2563,
  "origin": 2221,
  "oring": 2612,
  "ork": 841,
  "orns": 1476,
  "orous": 4628,
  "ors": 4088,
  "orses": 5084,
  "ort": 557,
  "orted": 2171,
  "orting": 4199,
  "ortion": 257,
  "orts": 1500,
  "os": 1521,
  "ose": 5654,
  "oser": 3889,
  "osh": 1537,
  "osing": 3469,
  "osition": 808,
  "ost": 905,
  "oster": 5960,
  "ot": 445,
  "other": 4760,
  "othes": 1368,
  "othing": 2319,
  "otic": 5876,
  "oting": 2601,
  "otion": 5910,
  "otive": 2314,
  "oton": 402,
  "otor": 3520,
  "ots": 4565,
  "ou": 1174,
  "oud": 4237,
  "ough": 812,
  "ounce": 2892,
  "ouncing": 768,
  "ound": 4644,
  "ounding": 244,
  "ounds": 3738,
  "ouple": 4886,
  "our": 564,
  "ouring": 5744,
  "ours": 4287,
  "ous": 261,
  "ousel": 4782,
  "ously": 522,
  "out": 5154,
  "outing": 590,
  "output": 3677,
  "outs": 5115,
  "outside": 1404,
  "oven": 3743,
  "over": 74,
  "oves": 1841,
  "ow": 5777,
  "ower": 521,
  "owing": 2726,
  "owl": 4036,
  "own": 5028,
  "owner": 1641,
  "ows": 370,
  "oy": 5436,
  "p": 3256,
  "pa": 5040,
  "pace": 4990,
  "paced": 2786,
  "pack": 1324,
  "package": 374,
  "packages": 5343,
  "packed": 3188,
  "packing": 613,
  "pad": 4412,
  "page": 2685,
  "pages": 3071,
  "pain": 4580,
  "pair": 4702,
  "pan": 1769,
  "pants": 4549,
  "paper": 5141,
  "papers": 4138,
  "parents": 3055,
  "park": 3076,
  "part": 5534,
  "parts": 5636,
  "party": 903,
  "pass": 3306,
  "past": 4431,
  "pat": 3606,
  "patch": 2514,
  "path": 5601,
  "pattern": 2002,
  "pause": 844,
  "paying": 881,
  "pe": 1035,
  "ped": 1621,
  "pee": 2961,
  "pel": 1817,
  "pen": 1773,
  "pend": 4150,
  "people": 5377,
  "per": 3793,
  "performance": 4148,
  "performing": 2515,
  "perhaps": 2023,
  "pering": 5873,
  "period": 1665,
  "person": 3559,
  "pet": 3492,
  "phase": 2932,
  "phone": 4757,
  "phones": 1742,
  "phony": 4615,
  "pick": 5388,
  "picked": 2678,
  "picking": 744,
  "picture": 2627,
  "piece": 2068,
  "pieces": 4397,
  "ping": 4518,
  "pipe": 3509,
  "pit": 1480,
  "pl": 1446,
  "place": 363,
  "placed": 3723,
  "places": 480,
  "plain": 5128,
  "plan": 1694,
  "plane": 5520,
  "planes": 4003,
  "plant": 719,
  "plate": 2810,
  "plates": 2934,
  "platform": 1720,
  "play": 5478,
  "played": 2859,
  "player": 5176,
  "playing": 372,
  "plays": 2007,
  "ple": 1502,
  "pleasant": 799,
  "pled": 1499,
  "pler": 2468,
  "ples": 5793,
  "plets": 896,
  "pling": 3194,
  "plug": 1657,
  "po": 1346,
  "pocket": 549,
  "point": 107,
  "points": 1968,
  "pol": 473,
  "pole": 1684,
  "police": 2410,
  "pool": 3530,
  "poor": 2405,
  "pop": 4905,
  "popular": 1094,
  "por": 2652,
  "portation": 5591,
  "position": 2713,
  "possibly": 506,
  "pot": 4206,
  "pots": 3787,
  "pound": 3817,
  "pour": 4935,
  "power": 702,
  "powered": 1916,
  "powerful": 5635,
  "powers": 3880,
  "pped": 1400,
  "ppers": 5011,
  "pping": 5346,
  "pr": 973,
  "present": 2768,
  "press": 5936,
  "pressed": 2582,
  "pressure": 237,
  "pretty": 869,
  "pri": 2770,
  "prim": 4529,
  "print": 1385,
  "printed": 3896,
  "prints": 3739,
  "process": 1851,
  "produ": 746,
  "produced": 5770,
  "producing": 1605,
  "product": 2046,
  "production": 5309,
  "products": 4103,
  "program": 3259,
  "progress": 1381,
  "projects": 2298,
  "prom": 4224,
  "ps": 4087,
  "psy": 2816,
  "public": 5530,
  "pull": 1214,
  "pur": 263,
  "pure": 5408,
  "push": 4092,
  "put": 5645,
  "qu": 2139,
  "quality": 2809,
  "que": 379,
  "quick": 1570,
  "quiet": 2625,
  "quit": 225,
  "quite": 3433,
  "r": 4202,
  "ra": 1631,
  "rac": 1555,
  "race": 5772,
  "rack": 37,
  "radio": 5566,
  "rail": 1432,
  "rain": 726,
  "raining": 5491,
  "raised": 699,
  "rake": 1457,
  "ram": 1002,
  "ran": 3265,
  "random": 2800,
  "rang": 2795,
  "range": 21,
  "rap": 4124,
  "rat": 893,
  "rate": 1101,
  "rates": 2434,
  "rather": 4305,
  "ravel": 2359,
  "re": 3693,
  "reach": 1592,
  "reaching": 1289,
  "read": 3996,
  "reading": 5839,
  "reads": 3079,
  "ready": 1627,
  "real": 56,
  "really": 1287,
  "ream": 984,
  "reason": 2702,
  "reat": 4531,
  "rec": 4198,
  "record": 3897,
  "recorded": 1881,
  "ree": 340,
  "reek": 1311,
  "rees": 3302,
  "ref": 1421,
  "register": 4194,
  "regular": 4328,
  "rel": 1864,
  "release": 5013,
  "released": 5165,
  "religious": 4461,
  "remote": 3904,
  "remove": 952,
  "renched": 1133,
  "rendered": 5199,
  "rene": 2227,
  "rent": 4019,
  "rep": 2549,
  "repair": 5788,
  "repe": 1281,
  "repeat": 4007,
  "res": 5177,
  "reset": 619,
  "response": 3214,
  "ressed": 5369,
  "rest": 569,
  "restricted": 3325,
  "result": 3641,
  "return": 5583,
  "rev": 2679,
  "reverse": 546,
  "rh": 5646,
  "rib": 1384,
  "ric": 4330,
  "rical": 3204,
  "rice": 3036,
  "rick": 2017,
  "ricted": 4673,
  "ridden": 4413,
  "ride": 4079,
  "ried": 1332,
  "rief": 604,
  "rig": 790,
  "right": 3684,
  "rikes": 2388,
  "rill": 3360,
  "rily": 2557,
  "rim": 3949,
  "ring": 2614,
  "rings": 219,
  "rise": 4608,
  "rises": 4256,
  "rising": 3320,
  "riter": 4650,
  "rium": 1433,
  "river": 3025,
  "ro": 1996,
  "road": 2696,
  "roads": 737,
  "rock": 3112,
  "rocket": 3012,
  "rod": 2620,
  "rol": 5866,
  "roll": 511,
  "rolled": 4067,
  "roller": 1180,
  "rolley": 5685,
  "rolling": 1190,
  "rom": 5382,
  "ron": 1534,
  "ronic": 4423,
  "room": 1859,
  "rooms": 2775,
  "ross": 5582,
  "rot": 662,
  "rots": 4322,
  "rough": 689,
  "round": 3233,
  "row": 4964,
  "rowd": 157,
  "rowing": 4966,
  "rows": 867,
  "rs": 3742,
  "ru": 4878,
  "rub": 1810,
  "ruck": 4095,
  "ruction": 466,
  "ruff": 3333,
  "rum": 5817,
  "run": 4002,
  "running": 1225,
  "runs": 2162,
  "rush": 2571,
  "rust": 1613,
  "ry": 4769,
  "rying": 4701,
  "s": 5429,
  "sa": 3272,
  "safety": 5626,
  "said": 2773,
  "same": 5259,
  "sample": 2801,
  "sand": 1267,
  "sat": 2839,
  "saw": 4903,
  "sc": 4137,
  "scan": 5865,
  "scene": 4969,
  "school": 1312,
  "science": 4686,
  "screen": 1210,
  "scrib": 2312,
  "se": 5769,
  "sea": 1072,
  "search": 1759,
  "second": 130,
  "seconds": 4645,
  "sect": 339,
  "section": 2105,
  "secut": 259,
  "see": 4394,
  "seen": 3594,
  "selection": 4797,
  "self": 4317,
  "sequence": 1732,
  "series": 5133,
  "server": 5652,
  "service": 2945,
  "services": 5690,
  "ses": 5379,
  "set": 5267,
  "sets": 1325,
  "setting": 2381,
  "settings": 4266,
  "seven": 4265,
  "sever": 4941,
  "severe": 4226,
  "sh": 4755,
  "shake": 1296,
  "shape": 4977,
  "shaped": 5430,
  "sharp": 1347,
  "she": 536,
  "shed": 2376,
  "sheet": 1902,
  "sheets": 3808,
  "shield": 3633,
  "shift": 701,
  "ship": 1224,
  "ships": 3776,
  "shoot": 5183,
  "shop": 139,
  "shore": 4697,
  "short": 4796,
  "shot": 2886,
  "shots": 5469,
  "show": 5222,
  "shr": 3465,
  "shut": 5760,
  "side": 2012,
  "sight": 4379,
  "sign": 2101,
  "significant": 1427,
  "sil": 3713,
  "silver": 5148,
  "sim": 985,
  "similar": 2166,
  "simple": 3637,
  "sing": 3003,
  "single": 4389,
  "sit": 4901,
  "site": 4599,
  "six": 3931,
  "size": 2803,
  "sized": 3279,
  "sk": 5001,
  "skill": 1804,
  "sky": 5081,
  "sl": 3327,
  "sleep": 2143,
  "slow": 5525,
  "sm": 3095,
  "small": 838,
  "smith": 2380,
  "sn": 5275,
  "snap": 1335,
  "so": 3089,
  "social": 389,
  "socket": 4776,
  "soft": 3899,
  "sol": 3108,
  "sole": 5539,
  "solid": 5444,
  "some": 1292,
  "someone": 1562,
  "something": 1771,
  "sometimes": 3551,
  "son": 4392,
  "song": 2980,
  "soon": 2218,
  "sort": 4576,
  "sound": 906,
  "sounding": 5221,
  "source": 2915,
  "sp": 1617,
  "space": 5629,
  "spe": 3744,
  "speak": 2499,
  "speaking": 3721,
  "species": 487,
  "specific": 39,
  "spect": 4505,
  "speech": 616,
  "speed": 5283,
  "spin": 3047,
  "spl": 3572,
  "sports": 5841,
  "spot": 2368,
  "spr": 4561,
  "spread": 4698,
  "spring": 5129,
  "squ": 5528,
  "square": 4676,
  "st": 123,
  "stack": 4074,
  "stage": 1622,
  "stairs": 3842,
  "stall": 5370,
  "stand": 3570,
  "standard": 3462,
  "standing": 3850,
  "stantial": 4795,
  "start": 4556,
  "started": 5018,
  "starting": 1403,
  "state": 277,
  "states": 2274,
  "static": 3579,
  "station": 4960,
  "ste": 5417,
  "stead": 3017,
  "steam": 5913,
  "steel": 3774,
  "step": 1092,
  "steps": 3671,
  "stick": 1352,
  "sticks": 4348,
  "still": 5464,
  "stock": 4240,
  "stone": 2703,
  "stones": 2622,
  "stood": 4204,
  "stop": 338,
  "store": 2428,
  "storm": 4187,
  "storms": 2778,
  "str": 2690,
  "straight": 2121,
  "stream": 3240,
  "street": 5501,
  "strength": 953,
  "stretched": 416,
  "stri": 5511,
  "strike": 5124,
  "string": 5902,
  "strings": 1008,
  "stro": 2965,
  "stroke": 4564,
  "strong": 947,
  "strument": 4183,
  "stud": 3437,
  "stuff": 1378,
  "style": 853,
  "styles": 5442,
  "su": 4275,
  "sub": 3222,
  "success": 1891,
  "such": 1284,
  "suit": 3870,
  "sum": 3068,
  "super": 2976,
  "sur": 3424,
  "sure": 3643,
  "surface": 5809,
  "sw": 2650,
  "swe": 2286,
  "sweet": 1484,
  "swing": 4732,
  "switch": 2745,
  "sy": 3906,
  "sym": 1079,
  "system": 778,
  "t": 2688,
  "table": 2634,
  "tail": 4200,
  "take": 2501,
  "taking": 1337,
  "talk": 3740,
  "talking": 498,
  "tall": 1632,
  "tank": 1306,
  "tap": 1922,
  "target": 5205,
  "task": 3155,
  "te": 5328,
  "team": 1784,
  "ted": 2285,
  "telling": 1413,
  "tem": 1120,
  "ten": 3554,
  "ter": 2086,
  "tering": 1056,
  "termin": 1186,
  "ters": 4852,
  "tested": 4381,
  "testing": 5714,
  "text": 4418,
  "th": 4005,
  "than": 3514,
  "that": 2553,
  "the": 2556,
  "their": 3948,
  "them": 2433,
  "theme": 664,
  "then": 169,
  "ther": 1609,
  "there": 4121,
  "they": 4809,
  "thin": 3894,
  "thing": 291,
  "things": 728,
  "third": 1781,
  "this": 3452,
  "those": 2607,
  "though": 1510,
  "threatening": 1046,
  "three": 4371,
  "thro": 815,
  "through": 2659,
  "throw": 265,
  "ths": 2014,
  "tick": 4063,
  "tight": 888,
  "tile": 1263,
  "tim": 4605,
  "time": 5409,
  "timer": 547,
  "times": 5631,
  "tin": 2100,
  "ting": 3895,
  "tiny": 4694,
  "tle": 5334,
  "to": 5930,
  "today": 1492,
  "together": 4873,
  "told": 4078,
  "ton": 81,
  "tone": 231,
  "tones": 2669,
  "tons": 4298,
  "too": 3884,
  "tool": 3569,
  "tools": 3461,
  "top": 5835,
  "tor": 3216,
  "torn": 4168,
  "total": 974,
  "touch": 1828,
  "tower": 252,
  "town": 256,
  "tr": 3752,
  "tra": 3542,
  "track": 671,
  "tracks": 5761,
  "traditional": 3678,
  "train": 2222,
  "trans": 1059,
  "travel": 1007,
  "tree": 4559,
  "tro": 5224,
  "trump": 2958,
  "try": 5036,
  "ts": 2189,
  "tub": 1443,
  "tube": 3528,
  "tun": 3792,
  "tur": 3840,
  "turn": 4117,
  "turned": 2605,
  "tv": 66,
  "tw": 1163,
  "twitter": 3253,
  "two": 5215,
  "ty": 4931,
  "typ": 5899,
  "type": 1217,
  "types": 2602,
  "u": 1255,
  "ual": 4669,
  "ually": 3383,
  "uated": 873,
  "uates": 2974,
  "uating": 3538,
  "uba": 1216,
  "ucer": 5735,
  "uck": 298,
  "ucked": 5556,
  "ucking": 217,
  "uckles": 3151,
  "ucks": 901,
  "ud": 4813,
  "udd": 4011,
  "uddenly": 4398,
  "udding": 3947,
  "uddle": 4614,
  "uddled": 566,
  "udging": 1282,
  "uds": 1424,
  "ues": 608,
  "uff": 3543,
  "ug": 5092,
  "ugs": 4653,
  "uing": 1686,
  "uit": 3901,
  "ul": 3578,
  "ula": 3592,
  "ulated": 5751,
  "ulates": 4652,
  "ulation": 5104,
  "ull": 946,
  "uls": 5524,
  "ultane": 5280,
  "ults": 4626,
  "ulum": 1195,
  "um": 593,
  "umb": 3376,
  "umble": 3618,
  "umbled": 4869,
  "umbles": 210,
  "umbling": 4258,
  "uments": 4436,
  "umerous": 3890,
  "umin": 4279,
  "uming": 3773,
  "uminum": 5175,
  "ump": 2247,
  "umping": 3634,
  "umps": 1010,
  "ums": 2324,
  "un": 4184,
  "unc": 5455,
  "unch": 4710,
  "unctions": 4033,
  "under": 2847,
  "unders": 1165,
  "undreds": 502,
  "ungle": 5332,
  "unique": 2788,
  "unit": 4216,
  "unk": 3197,
  "unknown": 4372,
  "until": 2120,
  "unts": 4465,
  "uous": 494,
  "uously": 5168,
  "up": 2660,
  "upon": 5807,
  "ups": 4925,
  "ur": 925,
  "ural": 5475,
  "urban": 4748,
  "urg": 3247,
  "uring": 1277,
  "uristic": 4543,
  "urized": 4455,
  "urn": 550,
  "urring": 2365,
  "urry": 1020,
  "urs": 5366,
  "us": 1361,
  "use": 3853,
  "used": 2656,
  "user": 1599,
  "uses": 633,
  "ush": 1074,
  "ushes": 4578,
  "ushing": 1579,
  "using": 673,
  "uss": 1973,
  "ust": 4908,
  "usting": 349,
  "usual": 3803,
  "ut": 4495,
  "ute": 5365,
  "uted": 4456,
  "utter": 4211,
  "uttering": 1194,
  "utters": 499,
  "uzz": 5956,
  "v": 930,
  "var": 4892,
  "variable": 5123,
  "ve": 747,
  "ved": 4432,
  "veh": 2011,
  "vel": 278,
  "vent": 2198,
  "ver": 2528,
  "verb": 3962,
  "vers": 1782,
  "verse": 3567,
  "very": 5361,
  "ves": 2052,
  "via": 3174,
  "video": 1837,
  "view": 3731,
  "vil": 3397,
  "ving": 16,
  "viol": 1234,
  "vo": 5853,
  "voice": 1429,
  "vol": 3681,
  "volume": 156,
  "w": 668,
  "wagon": 2284,
  "wait": 3377,
  "wake": 736,
  "walk": 987,
  "walking": 5389,
  "wall": 917,
  "war": 5523,
  "ware": 2868,
  "warm": 1969,
  "warming": 2289,
  "warn": 3314,
  "warning": 3772,
  "was": 3911,
  "wash": 1088,
  "washed": 1943,
  "washer": 5758,
  "washing": 4736,
  "watch": 4099,
  "watching": 1223,
  "water": 959,
  "waters": 5569,
  "wave": 5699,
  "waves": 3550,
  "way": 783,
  "ways": 1365,
  "we": 4703,
  "weak": 4803,
  "weapon": 4670,
  "weather": 425,
  "web": 1363,
  "weed": 1269,
  "weet": 2335,
  "weight": 1569,
  "well": 1748,
  "went": 4201,
  "were": 3252,
  "wh": 5349,
  "what": 5706,
  "whe": 3724,
  "wheel": 3863,
  "when": 2215,
  "where": 5256,
  "which": 1888,
  "while": 2200,
  "white": 1564,
  "who": 1660,
  "whose": 2080,
  "wide": 5950,
  "wild": 1211,
  "will": 5047,
  "wind": 1639,
  "window": 2089,
  "windows": 1181,
  "wine": 4277,
  "wing": 3373,
  "wings": 2538,
  "winter": 5671,
  "wire": 387,
  "with": 110,
  "within": 3367,
  "without": 1767,
  "wo": 3407,
  "wolf": 3495,
  "wolves": 3976,
  "woman": 4510,
  "women": 5481,
  "wood": 1725,
  "woods": 4324,
  "words": 218,
  "work": 1901,
  "worked": 1451,
  "worker": 2479,
  "workers": 1053,
  "working": 628,
  "works": 2807,
  "workshop": 5150,
  "world": 5201,
  "would": 3415,
  "wra": 1173,
  "wrap": 3997,
  "wrapper": 2152,
  "write": 5130,
  "writing": 1316,
  "written": 1076,
  "ws": 4899,
  "x": 28,
  "y": 4167,
  "yard": 816,
  "yd": 1414,
  "year": 1123,
  "yet": 1426,
  "ying": 2849,
  "yl": 849,
  "ynchron": 1717,
  "you": 823,
  "young": 3440,
  "your": 2022,
  "ys": 4593,
  "yth": 1375,
  "z": 3160,
  "ze": 5241,
  "zer": 2375,
  "zes": 3990,
  "zing": 4296,
  "zo": 754,
  "zz": 3459,
  "zzle": 5585,
  "ĠI": 3332,
  "ĠSty": 4085,
  "Ġa": 249,
  "Ġab": 4917,
  "Ġable": 2862,
  "Ġaboard": 275,
  "Ġabound": 2588,
  "Ġabout": 3867,
  "Ġabove": 4445,
  "Ġabrupt": 1420,
  "Ġabruptly": 4530,
  "Ġacceler": 1705,
  "Ġaccelerate": 3345,
  "Ġaccelerated": 4174,
  "Ġaccelerating": 1873,
  "Ġacceleration": 2982,
  "Ġaccompan": 3318,
  "Ġaccompanied": 1693,
  "Ġaccompanies": 4945,
  "Ġaccompany": 4682,
  "Ġaccompanying": 4588,
  "Ġaccord": 3668,
  "Ġacross": 2535,
  "Ġaction": 5790,
  "Ġactivate": 3263,
  "Ġactivated": 3193,
  "Ġactive": 2293,
  "Ġactivities": 3123,
  "Ġactivity": 4326,
  "Ġactually": 4804,
  "Ġadded": 4161,
  "Ġadding": 5505,
  "Ġaddition": 5533,
  "Ġadditional": 851,
  "Ġaddress": 5269,
  "Ġadjacent": 181,
  "Ġadjusted": 2423,
  "Ġadjusting": 776,
  "Ġadjustment": 4071,
  "Ġadult": 377,
  "Ġadults": 833,
  "Ġadvances": 3950,
  "Ġadvancing": 4771,
  "Ġafar": 2473,
  "Ġaffected": 3124,
  "Ġafter": 5750,
  "Ġafternoon": 5178,
  "Ġafterwards": 174,
  "Ġagain": 5928,
  "Ġagainst": 3621,
  "Ġaged": 2674,
  "Ġages": 1653,
  "Ġaggressive": 5099,
  "Ġaggressively": 2857,
  "Ġagitated": 147,
  "Ġair": 1857,
  "Ġaircraft": 1038,
  "Ġairline": 1142,
  "Ġairliner": 5574,
  "Ġairplane": 454,
  "Ġairplanes": 3672,
  "Ġairport": 5890,
  "Ġalarm": 1516,
  "Ġalarming": 1183,
  "Ġalert": 886,
  "Ġalerts": 538,
  "Ġalien": 3653,
  "Ġalive": 2670,
  "Ġall": 2147,
  "Ġallowed": 2701,
  "Ġallows": 1814,
  "Ġalmost": 4345,
  "Ġalone": 1838,
  "Ġalong": 2288,
  "Ġalongside": 5647,
  "Ġaloud": 792,
  "Ġalready": 5908,
  "Ġalso": 2590,
  "Ġaltern": 5951,
  "Ġalternate": 4131,
  "Ġalternating": 1543,
  "Ġalthough": 1911,
  "Ġaltitude": 2833,
  "Ġaluminum": 233,
  "Ġalways": 1606,
  "Ġamb": 2887,
  "Ġambient": 1171,
  "Ġambulance": 2234,
  "Ġamid": 5323,
  "Ġamong": 2832,
  "Ġamount": 5648,
  "Ġamounts": 1415,
  "Ġamplified": 1872,
  "Ġamusement": 597,
  "Ġan": 3210,
  "Ġand": 3784,
  "Ġangle": 3747,
  "Ġangrily": 1172,
  "Ġangry": 4706,
  "Ġanimal": 2275,
  "Ġanimals": 2962,
  "Ġannouncement": 738,
  "Ġannouncements": 708,
  "Ġannouncer": 735,
  "Ġannounces": 3706,
  "Ġannouncing": 2459,
  "Ġannoying": 4501,
  "Ġanother": 5838,
  "Ġanswer": 1297,
  "Ġanswering": 1612,
  "Ġanswers": 3208,
  "Ġantique": 3834,
  "Ġanxious": 760,
  "Ġany": 2102,
  "Ġanything": 5808,
  "Ġapart": 2033,
  "Ġapartment": 245,
  "Ġape": 2647,
  "Ġapparatus": 5490,
  "Ġapparent": 5933,
  "Ġappears": 2774,
  "Ġapplaud": 814,
  "Ġapplauded": 512,
  "Ġapplause": 5339,
  "Ġappliance": 2416,
  "Ġapplied": 2826,
  "Ġapproach": 1140,
  "Ġapproached": 789,
  "Ġapproaches": 583,
  "Ġapproaching": 1793,
  "Ġaquarium": 2093,
  "Ġare": 3078,
  "Ġarea": 4207,
  "Ġareas": 2722,
  "Ġarena": 4492,
  "Ġarguing": 2559,
  "Ġarise": 4127,
  "Ġarm": 2065,
  "Ġarms": 2918,
  "Ġaround": 1202,
  "Ġarr": 3344,
  "Ġarranged": 505,
  "Ġarranging": 3822,
  "Ġarrival": 1992,
  "Ġarrives": 5231,
  "Ġartificial": 3759,
  "Ġas": 4497,
  "Ġasc": 3815,
  "Ġascending": 1231,
  "Ġashes": 3598,
  "Ġashore": 2593,
  "Ġaside": 4598,
  "Ġassembled": 3936,
  "Ġassembling": 5250,
  "Ġassembly": 3014,
  "Ġassorted": 1220,
  "Ġassortment": 3868,
  "Ġat": 3666,
  "Ġatmosphere": 296,
  "Ġatop": 2231,
  "Ġattached": 1134,
  "Ġattaches": 4467,
  "Ġattempted": 3595,
  "Ġattempting": 3699,
  "Ġattempts": 3044,
  "Ġattention": 3422,
  "Ġattract": 5425,
  "Ġauction": 1820,
  "Ġaud": 4080,
  "Ġaudible": 2645,
  "Ġaudience": 1049,
  "Ġaudio": 4532,
  "Ġauditor": 3350,
  "Ġauto": 154,
  "Ġautomatic": 5532,
  "Ġautomation": 1544,
  "Ġautomobile": 1398,
  "Ġautomobiles": 3789,
  "Ġautomotive": 3219,
  "Ġautos": 352,
  "Ġav": 5477,
  "Ġavailable": 1091,
  "Ġaverage": 53,
  "Ġaway": 1591,
  "Ġawhile": 2300,
  "Ġaxe": 3289,
  "Ġb": 2739,
  "Ġba": 4213,
  "Ġbaby": 390,
  "Ġback": 3974,
  "Ġbackdrop": 5911,
  "Ġbacked": 2201,
  "Ġbackground": 4688,
  "Ġbacking": 5037,
  "Ġbackpack": 5878,
  "Ġbacks": 1350,
  "Ġbackup": 3453,
  "Ġbackward": 4332,
  "Ġbackwards": 1160,
  "Ġbackyard": 5757,
  "Ġbacon": 3454,
  "Ġbad": 2124,
  "Ġbadly": 5589,
  "Ġbag": 3058,
  "Ġbags": 3638,
  "Ġbalanced": 3236,
  "Ġball": 1912,
  "Ġballoon": 5252,
  "Ġballs": 5611,
  "Ġban": 1826,
  "Ġband": 4978,
  "Ġbandwidth": 1322,
  "Ġbang": 5917,
  "Ġbanging": 5198,
  "Ġbank": 4679,
  "Ġbar": 2554,
  "Ġbare": 2290,
  "Ġbarely": 1685,
  "Ġbark": 1600,
  "Ġbarking": 5149,
  "Ġbarn": 4620,
  "Ġbarrel": 43,
  "Ġbarrels": 997,
  "Ġbase": 3955,
  "Ġbaseball": 555,
  "Ġbasement": 5565,
  "Ġbashing": 413,
  "Ġbasin": 3357,
  "Ġbasketball": 1961,
  "Ġbass": 854,
  "Ġbat": 4135,
  "Ġbath": 2835,
  "Ġbathing": 4799,
  "Ġbathroom": 2216,
  "Ġbay": 4658,
  "Ġbe": 5431,
  "Ġbeach": 1634,
  "Ġbeads": 4369,
  "Ġbeam": 415,
  "Ġbeans": 1853,
  "Ġbearing": 3127,
  "Ġbearings": 5274,
  "Ġbeast": 5831,
  "Ġbeat": 1037,
  "Ġbeaten": 5007,
  "Ġbeating": 2743,
  "Ġbeats": 4537,
  "Ġbeautiful": 4353,
  "Ġbeautifully": 910,
  "Ġbecame": 4506,
  "Ġbecause": 2262,
  "Ġbecome": 4890,
  "Ġbecomes": 5247,
  "Ġbecoming": 4482,
  "Ġbed": 3820,
  "Ġbee": 4649,
  "Ġbeen": 4704,
  "Ġbeer": 1526,
  "Ġbees": 5500,
  "Ġbefore": 919,
  "Ġbegan": 2632,
  "Ġbegin": 2500,
  "Ġbeginning": 5174,
  "Ġbeginnings": 796,
  "Ġbegins": 5112,
  "Ġbehind": 1775,
  "Ġbeing": 4788,
  "Ġbeings": 4420,
  "Ġbell": 3946,
  "Ġbells": 5688,
  "Ġbelow": 3844,
  "Ġbelt": 554,
  "Ġbelts": 3989,
  "Ġbench": 1842,
  "Ġbending": 4934,
  "Ġbends": 3748,
  "Ġbeneath": 2073,
  "Ġbent": 1861,
  "Ġbeside": 1455,
  "Ġbesides": 2842,
  "Ġbetween": 2167,
  "Ġbeverage": 5055,
  "Ġbicycle": 1253,
  "Ġbig": 588,
  "Ġbigger": 238,
  "Ġbike": 1931,
  "Ġbin": 4696,
  "Ġbird": 4956,
  "Ġbirds": 4729,
  "Ġbit": 2547,
  "Ġbiting": 2698,
  "Ġbits": 949,
  "Ġbl": 3449,
  "Ġblack": 3655,
  "Ġbladder": 229,
  "Ġblade": 2244,
  "Ġblades": 5089,
  "Ġblast": 859,
  "Ġblasted": 5621,
  "Ġblasting": 5054,
  "Ġblasts": 1520,
  "Ġblazing": 1320,
  "Ġble": 3540,
  "Ġblender": 4377,
  "Ġblending": 2561,
  "Ġblew": 4259,
  "Ġblind": 5234,
  "Ġblo": 5509,
  "Ġblock": 4304,
  "Ġblocked": 5471,
  "Ġblocks": 5421,
  "Ġblow": 5485,
  "Ġblowing": 605,
  "Ġblown": 2054,
  "Ġblows": 4061,
  "Ġbo": 3419,
  "Ġboard": 294,
  "Ġboards": 1440,
  "Ġboat": 2651,
  "Ġbob": 4498,
  "Ġbody": 1435,
  "Ġboil": 5340,
  "Ġboiled": 2429,
  "Ġboiling": 3958,
  "Ġboils": 2478,
  "Ġbolt": 4800,
  "Ġbolts": 3238,
  "Ġbone": 3720,
  "Ġbook": 700,
  "Ġbooks": 5090,
  "Ġboom": 2316,
  "Ġbooming": 3171,
  "Ġboots": 1085,
  "Ġbored": 1494,
  "Ġboth": 779,
  "Ġbottle": 2175,
  "Ġbottles": 3142,
  "Ġbottom": 4545,
  "Ġbounce": 2077,
  "Ġbounced": 4789,
  "Ġbounces": 4349,
  "Ġbouncing": 842,
  "Ġbow": 3547,
  "Ġbowl": 5300,
  "Ġbowls": 4341,
  "Ġbox": 2537,
  "Ġboxes": 681,
  "Ġboxing": 1707,
  "Ġboy": 2177,
  "Ġboys": 2513,
  "Ġbrake": 2491,
  "Ġbrakes": 2957,
  "Ġbraking": 3749,
  "Ġbranch": 976,
  "Ġbranches": 4830,
  "Ġbrass": 4902,
  "Ġbreak": 5307,
  "Ġbreakfast": 356,
  "Ġbreaking": 2297,
  "Ġbreaks": 1630,
  "Ġbreat": 4862,
  "Ġbreath": 450,
  "Ġbreathing": 3819,
  "Ġbreaths": 4853,
  "Ġbree": 2717,
  "Ġbreeze": 1144,
  "Ġbrew": 831,
  "Ġbrewing": 2173,
  "Ġbridge": 1191,
  "Ġbrief": 4631,
  "Ġbriefly": 533,
  "Ġbringing": 2603,
  "Ġbrings": 625,
  "Ġbrisk": 3837,
  "Ġbro": 5200,
  "Ġbroadcast": 4012,
  "Ġbroadcasting": 1768,
  "Ġbroadcasts": 843,
  "Ġbroke": 907,
  "Ġbroken": 2853,
  "Ġbrood": 3650,
  "Ġbroom": 5504,
  "Ġbrush": 5390,
  "Ġbrushed": 4260,
  "Ġbrushes": 2769,
  "Ġbrushing": 4060,
  "Ġbub": 4923,
  "Ġbubble": 1019,
  "Ġbubbles": 2755,
  "Ġbucket": 2386,
  "Ġbuckets": 2442,
  "Ġbuckle": 782,
  "Ġbuff": 2878,
  "Ġbuffer": 2637,
  "Ġbug": 1184,
  "Ġbuggy": 2267,
  "Ġbugs": 1396,
  "Ġbuild": 4744,
  "Ġbuilding": 5803,
  "Ġbuilds": 4739,
  "Ġbuilt": 4162,
  "Ġbulldo": 1703,
  "Ġbump": 4435,
  "Ġbumped": 5157,
  "Ġbumps": 5742,
  "Ġbunch": 1989,
  "Ġbur": 5852,
  "Ġburn": 2748,
  "Ġburner": 414,
  "Ġburning": 57,
  "Ġburns": 1042,
  "Ġburst": 1230,
  "Ġbursting": 3730,
  "Ġbursts": 2519,
  "Ġbus": 4622,
  "Ġbuses": 119,
  "Ġbush": 2401,
  "Ġbushes": 1445,
  "Ġbusiness": 3969,
  "Ġbustling": 943,
  "Ġbusy": 4032,
  "Ġbut": 3048,
  "Ġbutton": 3119,
  "Ġbuttons": 2049,
  "Ġbuy": 1319,
  "Ġbuzz": 391,
  "Ġbuzzing": 1761,
  "Ġby": 4062,
  "Ġc": 576,
  "Ġcabin": 1215,
  "Ġcabinet": 5825,
  "Ġcac": 191,
  "Ġcad": 117,
  "Ġcafe": 4196,
  "Ġcafeteria": 3430,
  "Ġcage": 463,
  "Ġcages": 1116,
  "Ġcall": 3266,
  "Ġcalled": 3135,
  "Ġcalling": 236,
  "Ġcalls": 2392,
  "Ġcalm": 5204,
  "Ġcalmed": 4807,
  "Ġcalming": 1064,
  "Ġcalmly": 2183,
  "Ġcame": 1640,
  "Ġcamera": 4950,
  "Ġcamp": 182,
  "Ġcan": 4735,
  "Ġcand": 1357,
  "Ġcandy": 5185,
  "Ġcanine": 4406,
  "Ġcannot": 2145,
  "Ġcanopy": 3549,
  "Ġcans": 3622,
  "Ġcant": 4663,
  "Ġcanvas": 1885,
  "Ġcanyon": 3498,
  "Ġcap": 5254,
  "Ġcaps": 4818,
  "Ġcar": 1205,
  "Ġcard": 1582,
  "Ġcardboard": 254,
  "Ġcards": 3923,
  "Ġcare": 5479,
  "Ġcarefully": 5069,
  "Ġcargo": 4913,
  "Ġcarn": 4595,
  "Ġcarp": 1334,
  "Ġcarpet": 500,
  "Ġcarriage": 3685,
  "Ġcarried": 5508,
  "Ġcarries": 2379,
  "Ġcarrots": 5693,
  "Ġcarry": 1032,
  "Ġcarrying": 1595,
  "Ġcars": 2144,
  "Ġcart": 2209,
  "Ġcarts": 4834,
  "Ġcarved": 5949,
  "Ġcarving": 5278,
  "Ġcasc": 4715,
  "Ġcascade": 1700,
  "Ġcase": 5233,
  "Ġcash": 4319,
  "Ġcasual": 5146,
  "Ġcasually": 5396,
  "Ġcat": 5547,
  "Ġcatch": 3972,
  "Ġcatches": 4021,
  "Ġcatching": 1620,
  "Ġcats": 5940,
  "Ġcaught": 2308,
  "Ġcause": 1954,
  "Ġcaused": 5548,
  "Ġcauses": 116,
  "Ġcausing": 4999,
  "Ġcave": 3826,
  "Ġcd": 2594,
  "Ġce": 2271,
  "Ġceases": 514,
  "Ġceiling": 1275,
  "Ġcelebrate": 5181,
  "Ġcelebrating": 542,
  "Ġcelebration": 5010,
  "Ġcell": 2995,
  "Ġcement": 5748,
  "Ġcenter": 4632,
  "Ġceramic": 5656,
  "Ġcereal": 948,
  "Ġceremony": 4693,
  "Ġcertain": 2181,
  "Ġch": 2250,
  "Ġchain": 5728,
  "Ġchains": 3301,
  "Ġchair": 3121,
  "Ġchairs": 93,
  "Ġchalk": 4239,
  "Ġchamber": 5695,
  "Ġchampagne": 1069,
  "Ġchange": 2321,
  "Ġchanged": 1251,
  "Ġchanges": 3978,
  "Ġchanging": 5939,
  "Ġchannel": 2569,
  "Ġchannels": 3261,
  "Ġchant": 1818,
  "Ġchanting": 4299,
  "Ġchants": 5000,
  "Ġcharge": 2493,
  "Ġcharges": 5600,
  "Ġchat": 2463,
  "Ġchatter": 3138,
  "Ġchatting": 1785,
  "Ġche": 4141,
  "Ġcheck": 1532,
  "Ġchecking": 4910,
  "Ġchecks": 1496,
  "Ġcheer": 2925,
  "Ġcheered": 5667,
  "Ġcheering": 2994,
  "Ġcheers": 246,
  "Ġchef": 5506,
  "Ġchewing": 4953,
  "Ġchicken": 5891,
  "Ġchickens": 1112,
  "Ġchicks": 507,
  "Ġchild": 518,
  "Ġchildren": 603,
  "Ġchim": 77,
  "Ġchip": 155,
  "Ġchips": 5925,
  "Ġchop": 4719,
  "Ġchopped": 3352,
  "Ġchopping": 79,
  "Ġchops": 2879,
  "Ġchord": 2526,
  "Ġchords": 333,
  "Ġchorus": 3736,
  "Ġchurch": 4741,
  "Ġchurn": 2613,
  "Ġcigarette": 1535,
  "Ġcircle": 1975,
  "Ġcircled": 4293,
  "Ġcircles": 2680,
  "Ġcircling": 3206,
  "Ġcircular": 3270,
  "Ġcircus": 443,
  "Ġcity": 2237,
  "Ġcl": 1530,
  "Ġclam": 2518,
  "Ġclash": 5230,
  "Ġclasp": 2694,
  "Ġclassical": 4695,
  "Ġclassroom": 2567,
  "Ġclean": 3262,
  "Ġcleaned": 5519,
  "Ġcleaner": 4756,
  "Ġcleaning": 4452,
  "Ġcleans": 1028,
  "Ġclear": 1379,
  "Ġclearing": 5048,
  "Ġclearly": 2457,
  "Ġclears": 4271,
  "Ġclerk": 1615,
  "Ġclick": 4838,
  "Ġclicked": 5584,
  "Ġclicking": 727,
  "Ġclicks": 882,
  "Ġcliff": 1900,
  "Ġclimbing": 1774,
  "Ġclimbs": 1459,
  "Ġclinging": 983,
  "Ġclip": 4181,
  "Ġclipping": 3479,
  "Ġclips": 5502,
  "Ġclo": 1702,
  "Ġclock": 3575,
  "Ġclocks": 1601,
  "Ġclose": 1351,
  "Ġclosed": 2163,
  "Ġclosely": 1729,
  "Ġcloser": 167,
  "Ġcloses": 1132,
  "Ġcloset": 2389,
  "Ġclosing": 5341,
  "Ġcloth": 607,
  "Ġclothes": 1889,
  "Ġclothing": 227,
  "Ġcloud": 1266,
  "Ġclouds": 5433,
  "Ġclub": 2908,
  "Ġcluster": 3552,
  "Ġco": 1932,
  "Ġcoast": 4609,
  "Ġcoastal": 2041,
  "Ġcoaster": 4232,
  "Ġcoastline": 3943,
  "Ġcoat": 4475,
  "Ġcob": 5122,
  "Ġcock": 2741,
  "Ġcode": 3248,
  "Ġcoffee": 4839,
  "Ġcoin": 1668,
  "Ġcoins": 5456,
  "Ġcold": 4285,
  "Ġcoll": 1406,
  "Ġcollar": 5529,
  "Ġcollect": 2686,
  "Ġcollected": 5096,
  "Ġcollecting": 2443,
  "Ġcollection": 4115,
  "Ġcollects": 601,
  "Ġcollide": 5152,
  "Ġcoloring": 1955,
  "Ġcomb": 489,
  "Ġcombined": 3885,
  "Ġcombustion": 54,
  "Ġcome": 777,
  "Ġcomes": 5673,
  "Ġcoming": 3116,
  "Ġcomm": 1736,
  "Ġcomment": 1871,
  "Ġcommercial": 1280,
  "Ġcommon": 5937,
  "Ġcommunicate": 3704,
  "Ġcommunicated": 4442,
  "Ġcommunicates": 5375,
  "Ġcommunicating": 3861,
  "Ġcommunication": 4747,
  "Ġcommuter": 4572,
  "Ġcommuters": 740,
  "Ġcompany": 4329,
  "Ġcompeting": 4247,
  "Ġcomplaining": 5487,
  "Ġcomplains": 2866,
  "Ġcomplete": 4424,
  "Ġcompletely": 2191,
  "Ġcomplex": 2516,
  "Ġcomposed": 80,
  "Ġcompressed": 4058,
  "Ġcompressor": 5821,
  "Ġcomprised": 2977,
  "Ġcomputer": 1082,
  "Ġcon": 1772,
  "Ġconcert": 3497,
  "Ġconcrete": 1812,
  "Ġcondition": 733,
  "Ġconditioning": 1353,
  "Ġconference": 3442,
  "Ġconfined": 3053,
  "Ġcongest": 575,
  "Ġconnects": 4604,
  "Ġconsecut": 3158,
  "Ġconsecutive": 1876,
  "Ġconserv": 4681,
  "Ġconsiderable": 5258,
  "Ġconsistency": 4691,
  "Ġconsistent": 5543,
  "Ġconsistently": 1776,
  "Ġconsists": 5110,
  "Ġconst": 86,
  "Ġconstant": 2051,
  "Ġconstantly": 1890,
  "Ġconstruction": 2742,
  "Ġcontact": 314,
  "Ġcontained": 3390,
  "Ġcontainer": 3392,
  "Ġcontainers": 3084,
  "Ġcontaining": 5111,
  "Ġcontains": 5886,
  "Ġcontents": 1009,
  "Ġcontinual": 2474,
  "Ġcontinually": 1474,
  "Ġcontinue": 3975,
  "Ġcontinued": 1714,
  "Ġcontinues": 3041,
  "Ġcontinuing": 1006,
  "Ġcontinuous": 131,
  "Ġcontinuously": 3727,
  "Ġcontrol": 467,
  "Ġcontrolled": 5952,
  "Ġconvers": 1148,
  "Ġconversation": 5684,
  "Ġconversations": 3227,
  "Ġconvey": 5164,
  "Ġcook": 3583,
  "Ġcooked": 2512,
  "Ġcooking": 422,
  "Ġcooks": 3329,
  "Ġcooler": 2283,
  "Ġcooling": 764,
  "Ġcop": 3875,
  "Ġcopies": 3335,
  "Ġcopy": 1151,
  "Ġcopying": 3908,
  "Ġcor": 3110,
  "Ġcord": 3164,
  "Ġcorn": 3623,
  "Ġcorner": 2837,
  "Ġcorridor": 977,
  "Ġcorridors": 784,
  "Ġcough": 1159,
  "Ġcoughing": 5077,
  "Ġcould": 4255,
  "Ġcounted": 393,
  "Ġcounter": 4164,
  "Ġcounting": 3801,
  "Ġcountry": 1704,
  "Ġcountryside": 3230,
  "Ġcounts": 2471,
  "Ġcouple": 3409,
  "Ġcoupled": 320,
  "Ġcourse": 3234,
  "Ġcourt": 1392,
  "Ġcourtyard": 1663,
  "Ġcover": 644,
  "Ġcovered": 1068,
  "Ġcovers": 3183,
  "Ġcow": 2658,
  "Ġcows": 5766,
  "Ġcr": 13,
  "Ġcrack": 3098,
  "Ġcracked": 3810,
  "Ġcracking": 4367,
  "Ġcracks": 5261,
  "Ġcrank": 1915,
  "Ġcrash": 5286,
  "Ġcrashed": 1608,
  "Ġcrashes": 1908,
  "Ġcrashing": 573,
  "Ġcraz": 2427,
  "Ġcre": 1648,
  "Ġcream": 2426,
  "Ġcreate": 5617,
  "Ġcreated": 4988,
  "Ġcreates": 4958,
  "Ġcreating": 303,
  "Ġcreature": 2074,
  "Ġcreatures": 3954,
  "Ġcreek": 313,
  "Ġcreepy": 5078,
  "Ġcricket": 1486,
  "Ġcries": 4233,
  "Ġcrim": 5008,
  "Ġcrisp": 2106,
  "Ġcrit": 855,
  "Ġcro": 4350,
  "Ġcross": 1983,
  "Ġcrosses": 2384,
  "Ġcrossing": 5931,
  "Ġcrow": 33,
  "Ġcrowd": 5057,
  "Ġcrowded": 138,
  "Ġcrowds": 3519,
  "Ġcruise": 2066,
  "Ġcruising": 1342,
  "Ġcrumbling": 3254,
  "Ġcrunch": 175,
  "Ġcrushed": 1947,
  "Ġcrushing": 5557,
  "Ġcry": 757,
  "Ġcrying": 5633,
  "Ġcrystal": 2254,
  "Ġcubes": 1647,
  "Ġcup": 3173,
  "Ġcups": 1811,
  "Ġcurrent": 5218,
  "Ġcurrently": 2716,
  "Ġcustomer": 5169,
  "Ġcustomers": 1755,
  "Ġcut": 2140,
  "Ġcuts": 4136,
  "Ġcutter": 4768,
  "Ġcutting": 2418,
  "Ġcy": 3456,
  "Ġcycl": 1290,
  "Ġcycle": 5771,
  "Ġcycles": 163,
  "Ġcycling": 4526,
  "Ġcylinder": 1264,
  "Ġd": 1734,
  "Ġdam": 1680,
  "Ġdamp": 1629,
  "Ġdance": 168,
  "Ġdancing": 3902,
  "Ġdangerous": 3683,
  "Ġdark": 5031,
  "Ġdarts": 2902,
  "Ġday": 60,
  "Ġdaytime": 1047,
  "Ġde": 940,
  "Ġdead": 1906,
  "Ġdeaf": 3337,
  "Ġdeal": 3533,
  "Ġdebris": 1075,
  "Ġdecides": 5127,
  "Ġdeck": 540,
  "Ġdecreases": 2705,
  "Ġdecreasing": 3196,
  "Ġdeep": 5954,
  "Ġdeeper": 3968,
  "Ġdeeply": 4860,
  "Ġdegrees": 3991,
  "Ġdelay": 3862,
  "Ġdeliberate": 1801,
  "Ġdeliberately": 3399,
  "Ġdelicate": 594,
  "Ġdelight": 2530,
  "Ġdelivery": 143,
  "Ġdemonstration": 3919,
  "Ġdense": 1626,
  "Ġdep": 2562,
  "Ġdeparting": 2223,
  "Ġdeparture": 3887,
  "Ġdesc": 4671,
  "Ġdescend": 5217,
  "Ġdescending": 1840,
  "Ġdesired": 545,
  "Ġdesk": 3926,
  "Ġdespite": 4918,
  "Ġdestination": 1865,
  "Ġdetecting": 5632,
  "Ġdetector": 3101,
  "Ġdetects": 5764,
  "Ġdetermined": 2245,
  "Ġdevice": 2305,
  "Ġdial": 4339,
  "Ġdice": 1472,
  "Ġdid": 3481,
  "Ġdie": 5197,
  "Ġdies": 3235,
  "Ġdiesel": 3287,
  "Ġdifference": 3712,
  "Ġdifferent": 1930,
  "Ġdiffering": 1206,
  "Ġdifficult": 2090,
  "Ġdifficulty": 2360,
  "Ġdig": 5594,
  "Ġdigging": 877,
  "Ġdigital": 243,
  "Ġdigs": 4845,
  "Ġdimin": 875,
  "Ġdiminish": 4944,
  "Ġdin": 149,
  "Ġdiner": 3296,
  "Ġding": 4122,
  "Ġdining": 4607,
  "Ġdinner": 5306,
  "Ġdipping": 4571,
  "Ġdips": 4441,
  "Ġdirection": 1307,
  "Ġdirections": 2146,
  "Ġdirects": 3823,
  "Ġdirt": 327,
  "Ġdirty": 543,
  "Ġdisappearing": 4586,
  "Ġdisappears": 4064,
  "Ġdiscern": 581,
  "Ġdiscs": 1860,
  "Ġdiscuss": 2050,
  "Ġdiscussing": 2446,
  "Ġdiscussion": 1789,
  "Ġdish": 4195,
  "Ġdishes": 3848,
  "Ġdisk": 4627,
  "Ġdisp": 1925,
  "Ġdispatcher": 2700,
  "Ġdispens": 5474,
  "Ġdispl": 2503,
  "Ġdisplay": 5393,
  "Ġdisrupt": 179,
  "Ġdissip": 659,
  "Ġdisson": 5587,
  "Ġdist": 5856,
  "Ġdistance": 1257,
  "Ġdistances": 1832,
  "Ġdistant": 3168,
  "Ġdistinct": 386,
  "Ġdistinguished": 5325,
  "Ġdistorted": 3250,
  "Ġdistortion": 4583,
  "Ġdistress": 63,
  "Ġdistur": 1868,
  "Ġdisturbance": 850,
  "Ġdisturbed": 3120,
  "Ġdisturbing": 5155,
  "Ġdiver": 4519,
  "Ġdiving": 617,
  "Ġdo": 1636,
  "Ġdock": 828,
  "Ġdocument": 2947,
  "Ġdocuments": 2733,
  "Ġdoes": 2599,
  "Ġdog": 4471,
  "Ġdogs": 1745,
  "Ġdoing": 3083,
  "Ġdominant": 73,
  "Ġdone": 527,
  "Ġdoor": 4829,
  "Ġdoors": 2903,
  "Ġdoorstep": 4325,
  "Ġdoorway": 55,
  "Ġdough": 5422,
  "Ġdove": 2197,
  "Ġdow": 2185,
  "Ġdown": 3702,
  "Ġdownfall": 4015,
  "Ġdowns": 4816,
  "Ġdownstream": 2085,
  "Ġdownward": 3843,
  "Ġdozen": 4094,
  "Ġdr": 2933,
  "Ġdragged": 2208,
  "Ġdragging": 3505,
  "Ġdrain": 4874,
  "Ġdrainage": 724,
  "Ġdrained": 695,
  "Ġdraining": 2088,
  "Ġdrains": 5239,
  "Ġdramatic": 1909,
  "Ġdraw": 4875,
  "Ġdrawer": 4865,
  "Ġdrawing": 3351,
  "Ġdrawn": 1207,
  "Ġdraws": 4824,
  "Ġdress": 2257,
  "Ġdri": 4961,
  "Ġdrib": 2180,
  "Ġdried": 3427,
  "Ġdrill": 5153,
  "Ġdrilling": 2322,
  "Ġdrills": 3922,
  "Ġdrink": 1839,
  "Ġdrinking": 1917,
  "Ġdrinks": 3157,
  "Ġdrip": 4832,
  "Ġdripping": 4904,
  "Ġdrive": 1254,
  "Ġdriven": 4683,
  "Ġdriver": 4911,
  "Ġdrivers": 1727,
  "Ġdrives": 2338,
  "Ġdriveway": 2026,
  "Ġdriving": 5317,
  "Ġdro": 767,
  "Ġdrone": 516,
  "Ġdrones": 2142,
  "Ġdrop": 4123,
  "Ġdropped": 1581,
  "Ġdropping": 674,
  "Ġdrops": 5846,
  "Ġdrove": 4629,
  "Ġdrown": 2382,
  "Ġdrowned": 5413,
  "Ġdrowning": 2662,
  "Ġdrum": 3682,
  "Ġdrummer": 3172,
  "Ġdrums": 1329,
  "Ġdrunk": 2683,
  "Ġdry": 354,
  "Ġdrying": 1291,
  "Ġduck": 2363,
  "Ġducks": 2040,
  "Ġduct": 1031,
  "Ġdue": 1106,
  "Ġdull": 5003,
  "Ġdump": 2229,
  "Ġdumped": 5962,
  "Ġdumping": 26,
  "Ġdumps": 4767,
  "Ġdunk": 996,
  "Ġduring": 1239,
  "Ġdusk": 4915,
  "Ġdust": 5209,
  "Ġduties": 2083,
  "Ġdying": 5068,
  "Ġe": 1080,
  "Ġeach": 4364,
  "Ġear": 5802,
  "Ġearly": 5301,
  "Ġearth": 3914,
  "Ġeasing": 2905,
  "Ġeasy": 591,
  "Ġeat": 889,
  "Ġeater": 4842,
  "Ġeating": 5160,
  "Ġeats": 274,
  "Ġeaves": 715,
  "Ġecho": 1941,
  "Ġechoed": 5387,
  "Ġechoes": 2820,
  "Ġechoing": 3516,
  "Ġedge": 2161,
  "Ġedges": 2436,
  "Ġeerie": 2135,
  "Ġeffect": 3573,
  "Ġeffected": 2921,
  "Ġeffects": 76,
  "Ġeffort": 2128,
  "Ġegg": 3586,
  "Ġeggs": 2708,
  "Ġeight": 1699,
  "Ġeither": 3104,
  "Ġeject": 5649,
  "Ġelastic": 5494,
  "Ġelectric": 2752,
  "Ġelectrical": 3708,
  "Ġelectricity": 1348,
  "Ġelectronic": 481,
  "Ġelectronically": 4483,
  "Ġelectronics": 5331,
  "Ġelevator": 1208,
  "Ġelse": 3541,
  "Ġeman": 4942,
  "Ġemanating": 1232,
  "Ġemergency": 3652,
  "Ġemission": 2010,
  "Ġemit": 132,
  "Ġemits": 795,
  "Ġemitted": 4718,
  "Ġemitting": 759,
  "Ġemphasis": 3806,
  "Ġempt": 2091,
  "Ġemptied": 1597,
  "Ġempty": 4223,
  "Ġenclosed": 5448,
  "Ġenclosure": 5219,
  "Ġend": 4919,
  "Ġended": 5374,
  "Ġending": 2195,
  "Ġendless": 3847,
  "Ġendlessly": 4728,
  "Ġends": 1589,
  "Ġengage": 4847,
  "Ġengaged": 5322,
  "Ġengages": 2812,
  "Ġengaging": 5713,
  "Ġengine": 3782,
  "Ġengineering": 2942,
  "Ġengines": 2027,
  "Ġenhanced": 4410,
  "Ġenjoying": 3858,
  "Ġenormous": 5067,
  "Ġenough": 1854,
  "Ġens": 1470,
  "Ġenter": 3096,
  "Ġentered": 2808,
  "Ġentering": 4569,
  "Ġenters": 4713,
  "Ġenthusiastically": 1659,
  "Ġentire": 5586,
  "Ġentirety": 5887,
  "Ġentrance": 807,
  "Ġentry": 4292,
  "Ġenvironment": 3604,
  "Ġequipment": 5298,
  "Ġer": 3525,
  "Ġerase": 2164,
  "Ġerr": 3767,
  "Ġerratic": 1517,
  "Ġerupt": 2193,
  "Ġescal": 1507,
  "Ġescalating": 3179,
  "Ġescape": 5268,
  "Ġescapes": 1809,
  "Ġescaping": 1573,
  "Ġespecially": 3729,
  "Ġeven": 4656,
  "Ġevening": 135,
  "Ġevenly": 5102,
  "Ġevent": 3620,
  "Ġeventually": 250,
  "Ġever": 1187,
  "Ġevery": 4100,
  "Ġeveryone": 207,
  "Ġeverything": 2303,
  "Ġeverywhere": 4699,
  "Ġevident": 95,
  "Ġexcept": 2872,
  "Ġexcited": 1467,
  "Ġexclaim": 5457,
  "Ġexert": 3187,
  "Ġexh": 4037,
  "Ġexhaust": 2424,
  "Ġexists": 2829,
  "Ġexit": 4145,
  "Ġexiting": 4453,
  "Ġexits": 4132,
  "Ġexotic": 58,
  "Ġexplode": 2804,
  "Ġexplodes": 2551,
  "Ġexploding": 4075,
  "Ġexplosion": 4527,
  "Ġexplosions": 669,
  "Ġextending": 2485,
  "Ġexterior": 4948,
  "Ġextreme": 957,
  "Ġextremely": 1313,
  "Ġf": 739,
  "Ġfabric": 2092,
  "Ġface": 2357,
  "Ġfacet": 3280,
  "Ġfactory": 1792,
  "Ġfade": 471,
  "Ġfaded": 2986,
  "Ġfades": 4520,
  "Ġfading": 2827,
  "Ġfailing": 4879,
  "Ġfails": 1981,
  "Ġfaint": 4877,
  "Ġfaintly": 3282,
  "Ġfair": 4994,
  "Ġfairly": 5076,
  "Ġfall": 878,
  "Ġfallen": 1411,
  "Ġfalling": 1013,
  "Ġfalls": 3898,
  "Ġfamily": 2452,
  "Ġfan": 4464,
  "Ġfans": 4965,
  "Ġfar": 1431,
  "Ġfarm": 4895,
  "Ġfarther": 5263,
  "Ġfashion": 5776,
  "Ġfashioned": 3855,
  "Ġfast": 3537,
  "Ġfaster": 3734,
  "Ġfat": 4517,
  "Ġfather": 960,
  "Ġfaulty": 2486,
  "Ġfeat": 2813,
  "Ġfeature": 3326,
  "Ġfeatures": 5440,
  "Ġfed": 3480,
  "Ġfeed": 4130,
  "Ġfeedback": 1676,
  "Ġfeeding": 373,
  "Ġfeeds": 5955,
  "Ġfeelings": 464,
  "Ġfeet": 5774,
  "Ġfell": 5919,
  "Ġfelt": 5314,
  "Ġfemale": 5561,
  "Ġfence": 5642,
  "Ġferry": 3087,
  "Ġfestival": 4229,
  "Ġfew": 3300,
  "Ġfiction": 2150,
  "Ġfield": 5083,
  "Ġfierce": 3310,
  "Ġfiercely": 2307,
  "Ġfight": 5739,
  "Ġfighting": 2373,
  "Ġfile": 1025,
  "Ġfiled": 5075,
  "Ġfiles": 3045,
  "Ġfiling": 955,
  "Ġfill": 5903,
  "Ġfilled": 5194,
  "Ġfilling": 2999,
  "Ġfills": 2992,
  "Ġfilm": 410,
  "Ġfilming": 4355,
  "Ġfilter": 1203,
  "Ġfinal": 3340,
  "Ġfinale": 5507,
  "Ġfinally": 5857,
  "Ġfind": 3593,
  "Ġfinds": 623,
  "Ġfing": 3008,
  "Ġfinger": 1331,
  "Ġfingers": 4707,
  "Ġfinish": 2914,
  "Ġfinished": 5210,
  "Ġfinishes": 2497,
  "Ġfire": 1401,
  "Ġfired": 1423,
  "Ġfireplace": 150,
  "Ġfires": 459,
  "Ġfireworks": 4552,
  "Ġfiring": 3507,
  "Ġfirm": 2693,
  "Ġfirmly": 2510,
  "Ġfirst": 2435,
  "Ġfish": 4393,
  "Ġfishing": 4955,
  "Ġfist": 667,
  "Ġfive": 4263,
  "Ġfix": 2450,
  "Ġfixed": 5526,
  "Ġfixing": 1967,
  "Ġfl": 3601,
  "Ġflag": 2252,
  "Ġflame": 4171,
  "Ġflames": 5576,
  "Ġflap": 1436,
  "Ġflat": 2560,
  "Ġflew": 2490,
  "Ġflick": 5244,
  "Ġflies": 4534,
  "Ġflight": 4581,
  "Ġflights": 4443,
  "Ġflip": 304,
  "Ġflipped": 714,
  "Ġflipping": 1158,
  "Ġflips": 3762,
  "Ġfloat": 1877,
  "Ġfloating": 3451,
  "Ġflock": 657,
  "Ġflood": 585,
  "Ġflooded": 433,
  "Ġflooding": 1547,
  "Ġfloods": 160,
  "Ġfloor": 5046,
  "Ġfloors": 1103,
  "Ġflow": 52,
  "Ġflowed": 718,
  "Ġflowers": 3475,
  "Ġflowing": 1405,
  "Ġflown": 4120,
  "Ġflows": 3069,
  "Ġfluct": 5324,
  "Ġfluid": 773,
  "Ġflush": 4742,
  "Ġflushed": 5445,
  "Ġfly": 3107,
  "Ġflying": 3209,
  "Ġfocus": 5432,
  "Ġfolded": 3545,
  "Ġfolders": 3129,
  "Ġfolding": 4634,
  "Ġfolds": 2692,
  "Ġfoliage": 337,
  "Ġfolks": 3132,
  "Ġfollow": 5333,
  "Ġfollowed": 17,
  "Ġfollowing": 2874,
  "Ġfollows": 2852,
  "Ġfood": 2214,
  "Ġfoot": 4289,
  "Ġfootsteps": 3324,
  "Ġfor": 2950,
  "Ġforce": 3162,
  "Ġforced": 3928,
  "Ġforceful": 1807,
  "Ġforcefully": 5670,
  "Ġforeground": 1219,
  "Ġforest": 1105,
  "Ġfork": 1991,
  "Ġforks": 99,
  "Ġform": 4230,
  "Ġformed": 4454,
  "Ġforming": 3758,
  "Ġforms": 2313,
  "Ġforth": 4674,
  "Ġforward": 1508,
  "Ġfound": 371,
  "Ġfountain": 1883,
  "Ġfour": 4383,
  "Ġfourteen": 5336,
  "Ġfourth": 3122,
  "Ġfragments": 2757,
  "Ġframe": 2467,
  "Ġfrantic": 2695,
  "Ġfrantically": 5423,
  "Ġfree": 4655,
  "Ġfreely": 1199,
  "Ġfreeway": 4214,
  "Ġfreight": 1119,
  "Ġfrequencies": 3905,
  "Ġfrequency": 2628,
  "Ġfrequent": 3315,
  "Ġfrequently": 1938,
  "Ġfresh": 5775,
  "Ġfriction": 5796,
  "Ġfried": 360,
  "Ġfriendly": 1553,
  "Ġfriends": 551,
  "Ġfries": 1503,
  "Ġfrightening": 1461,
  "Ġfro": 5669,
  "Ġfrog": 819,
  "Ġfrogs": 5860,
  "Ġfrom": 385,
  "Ġfront": 2439,
  "Ġfrozen": 4428,
  "Ġfry": 5789,
  "Ġfrying": 1882,
  "Ġfuel": 2070,
  "Ġfull": 4856,
  "Ġfully": 4781,
  "Ġfun": 5854,
  "Ġfunction": 394,
  "Ġfunctioning": 64,
  "Ġfunctions": 1688,
  "Ġfunny": 2265,
  "Ġfuriously": 1689,
  "Ġfurnace": 5745,
  "Ġfurniture": 3873,
  "Ġfurther": 687,
  "Ġfury": 204,
  "Ġfuturistic": 1867,
  "Ġg": 5173,
  "Ġgain": 4408,
  "Ġgaining": 2158,
  "Ġgains": 4343,
  "Ġgall": 2823,
  "Ġgame": 2855,
  "Ġgames": 3984,
  "Ġgap": 1650,
  "Ġgar": 4914,
  "Ġgarage": 202,
  "Ġgarbage": 1121,
  "Ġgarden": 2763,
  "Ġgardens": 2821,
  "Ġgas": 1588,
  "Ġgasp": 3372,
  "Ġgate": 4881,
  "Ġgates": 1246,
  "Ġgather": 890,
  "Ġgathered": 5812,
  "Ġgathering": 5668,
  "Ġgathers": 1238,
  "Ġgave": 1221,
  "Ġge": 932,
  "Ġgear": 5797,
  "Ġgears": 2013,
  "Ġgeneral": 4906,
  "Ġgenerate": 5819,
  "Ġgenerated": 2242,
  "Ġgenerates": 2281,
  "Ġgenerating": 2325,
  "Ġgenerator": 5021,
  "Ġgentle": 1815,
  "Ġgently": 3393,
  "Ġget": 5897,
  "Ġgets": 2997,
  "Ġgetting": 4801,
  "Ġghost": 2585,
  "Ġgiant": 70,
  "Ġgift": 197,
  "Ġgigg": 3722,
  "Ġgirl": 2329,
  "Ġgirls": 2210,
  "Ġgive": 4657,
  "Ġgiven": 4069,
  "Ġgives": 5768,
  "Ġgiving": 4034,
  "Ġgl": 5850,
  "Ġglass": 3215,
  "Ġglasses": 2071,
  "Ġgloomy": 4932,
  "Ġglove": 2967,
  "Ġgo": 1965,
  "Ġgoat": 4301,
  "Ġgoats": 2968,
  "Ġgoes": 2916,
  "Ġgoing": 4361,
  "Ġgolf": 780,
  "Ġgone": 1355,
  "Ġgood": 3056,
  "Ġgoose": 5119,
  "Ġgot": 5823,
  "Ġgr": 2157,
  "Ġgrabbing": 654,
  "Ġgrabs": 42,
  "Ġgradual": 4023,
  "Ġgradually": 2170,
  "Ġgrain": 1898,
  "Ġgrains": 3961,
  "Ġgrand": 2791,
  "Ġgrandfather": 2734,
  "Ġgrass": 2453,
  "Ġgrate": 1802,
  "Ġgrave": 3368,
  "Ġgravel": 100,
  "Ġgravity": 380,
  "Ġgrease": 341,
  "Ġgreat": 610,
  "Ġgreen": 2069,
  "Ġgreet": 4660,
  "Ġgrew": 4636,
  "Ġgrill": 3414,
  "Ġgrind": 5701,
  "Ġgrinding": 1364,
  "Ġgritty": 4859,
  "Ġgro": 1713,
  "Ġgroceries": 2192,
  "Ġgrocery": 3585,
  "Ġground": 4220,
  "Ġgrounds": 2044,
  "Ġgroup": 2481,
  "Ġgroups": 1542,
  "Ġgrow": 5732,
  "Ġgrowing": 1709,
  "Ġgrown": 1454,
  "Ġgrows": 5737,
  "Ġgrowth": 3800,
  "Ġgrun": 5216,
  "Ġguard": 2399,
  "Ġguitar": 5266,
  "Ġgul": 3523,
  "Ġgull": 3450,
  "Ġgun": 539,
  "Ġgunfire": 1538,
  "Ġguns": 3580,
  "Ġgunshots": 2922,
  "Ġgust": 5009,
  "Ġgut": 5029,
  "Ġguy": 523,
  "Ġguys": 2477,
  "Ġgym": 5779,
  "Ġh": 216,
  "Ġha": 3257,
  "Ġhabitat": 5503,
  "Ġhad": 1318,
  "Ġhail": 1189,
  "Ġhair": 2431,
  "Ġhal": 3167,
  "Ġhalf": 5493,
  "Ġhall": 429,
  "Ġhallway": 857,
  "Ġhalt": 5302,
  "Ġhamm": 3536,
  "Ġhammer": 5892,
  "Ġhammered": 4366,
  "Ġhand": 3491,
  "Ġhandful": 4709,
  "Ġhandle": 2362,
  "Ġhandled": 1087,
  "Ġhandles": 4603,
  "Ġhandling": 2796,
  "Ġhands": 5171,
  "Ġhanging": 2596,
  "Ġhangs": 3522,
  "Ġhappened": 4385,
  "Ġhappening": 5663,
  "Ġhappens": 3362,
  "Ġhappily": 2782,
  "Ġhappy": 2940,
  "Ġhard": 1270,
  "Ġharder": 172,
  "Ġhardly": 4176,
  "Ġharmon": 3339,
  "Ġharmony": 688,
  "Ġharness": 970,
  "Ġharsh": 3299,
  "Ġharshly": 5832,
  "Ġhas": 2655,
  "Ġhaunted": 1942,
  "Ġhave": 4547,
  "Ġhaving": 3515,
  "Ġhawk": 4943,
  "Ġhe": 3608,
  "Ġhead": 1633,
  "Ġheading": 1654,
  "Ġheads": 5718,
  "Ġheap": 1096,
  "Ġhear": 1985,
  "Ġheard": 4596,
  "Ġhearing": 2042,
  "Ġheart": 3502,
  "Ġheat": 4946,
  "Ġheated": 532,
  "Ġheater": 998,
  "Ġheating": 4337,
  "Ġheavier": 1624,
  "Ġheavily": 3960,
  "Ġheavy": 75,
  "Ġheels": 4134,
  "Ġheight": 2127,
  "Ġheld": 2279,
  "Ġhelicopter": 4548,
  "Ġhelping": 3920,
  "Ġhen": 5255,
  "Ġher": 3312,
  "Ġhere": 164,
  "Ġhes": 3051,
  "Ġhides": 5132,
  "Ġhigh": 4173,
  "Ġhigher": 2841,
  "Ġhighly": 4840,
  "Ġhighway": 4411,
  "Ġhiking": 5563,
  "Ġhill": 4937,
  "Ġhim": 1758,
  "Ġhimself": 2710,
  "Ġhinge": 4777,
  "Ġhinges": 159,
  "Ġhis": 5625,
  "Ġhit": 4375,
  "Ġhits": 5203,
  "Ġhitting": 5285,
  "Ġhive": 4354,
  "Ġho": 1018,
  "Ġholder": 3733,
  "Ġholding": 899,
  "Ġholds": 4539,
  "Ġhole": 1574,
  "Ġholes": 62,
  "Ġhollow": 5489,
  "Ġhome": 3364,
  "Ġhon": 2154,
  "Ġhood": 2414,
  "Ġhorn": 2354,
  "Ġhorns": 4338,
  "Ġhorrific": 4738,
  "Ġhorse": 3603,
  "Ġhorses": 3001,
  "Ġhose": 1485,
  "Ġhospital": 5273,
  "Ġhot": 5672,
  "Ġhotly": 5381,
  "Ġhour": 4433,
  "Ġhours": 1045,
  "Ġhouse": 3983,
  "Ġhouses": 3125,
  "Ġhovering": 4894,
  "Ġhow": 868,
  "Ġhuge": 982,
  "Ġhull": 2344,
  "Ġhum": 3321,
  "Ġhuman": 5763,
  "Ġhumans": 4359,
  "Ġhumming": 4828,
  "Ġhundreds": 88,
  "Ġhung": 4434,
  "Ġhurricane": 5579,
  "Ġhurried": 5879,
  "Ġhydraulic": 4046,
  "Ġice": 29,
  "Ġicy": 326,
  "Ġid": 1887,
  "Ġidle": 4538,
  "Ġif": 5086,
  "Ġign": 5289,
  "Ġignited": 4787,
  "Ġignition": 5694,
  "Ġim": 1004,
  "Ġimitate": 3882,
  "Ġimmediately": 685,
  "Ġimplement": 15,
  "Ġin": 5780,
  "Ġincess": 752,
  "Ġincluded": 4651,
  "Ġincludes": 2844,
  "Ġincluding": 3410,
  "Ġinco": 5898,
  "Ġincoming": 634,
  "Ġinconsist": 3319,
  "Ġinconsistent": 282,
  "Ġincrease": 477,
  "Ġincreased": 4373,
  "Ġincreases": 5394,
  "Ġincreasing": 3697,
  "Ġincreasingly": 3728,
  "Ġincredibly": 1233,
  "Ġincrements": 793,
  "Ġindicate": 4235,
  "Ġindicates": 1997,
  "Ġindicating": 3768,
  "Ġindiscrim": 1040,
  "Ġindist": 1367,
  "Ġindistinguishable": 1473,
  "Ġindividual": 5404,
  "Ġindividually": 1558,
  "Ġindividuals": 5140,
  "Ġindoor": 2021,
  "Ġindoors": 68,
  "Ġindustrial": 5605,
  "Ġinfant": 705,
  "Ġinformation": 3982,
  "Ġinh": 2704,
  "Ġinitially": 3354,
  "Ġinitiated": 5945,
  "Ġink": 5916,
  "Ġinsect": 5211,
  "Ġinsects": 5137,
  "Ġinserted": 3856,
  "Ġinside": 5271,
  "Ġinsist": 3490,
  "Ġinstallation": 3295,
  "Ġinstrument": 148,
  "Ġinstrumental": 1786,
  "Ġinstruments": 457,
  "Ġintens": 1407,
  "Ġintense": 308,
  "Ġintensely": 5783,
  "Ġintensity": 5051,
  "Ġinter": 5724,
  "Ġinteracting": 5,
  "Ġinterchange": 4485,
  "Ġinteresting": 1197,
  "Ġinterfere": 5120,
  "Ġinterference": 4836,
  "Ġinterior": 4140,
  "Ġintermitt": 1244,
  "Ġintermittent": 5338,
  "Ġinternal": 5800,
  "Ġinterrupt": 2248,
  "Ġinterrupted": 2487,
  "Ġinterruption": 5476,
  "Ġinterrupts": 1822,
  "Ġintersection": 2806,
  "Ġinterstate": 3416,
  "Ġinterval": 240,
  "Ġintervals": 2302,
  "Ġinto": 5071,
  "Ġiron": 4617,
  "Ġirregular": 4400,
  "Ġis": 1071,
  "Ġit": 2430,
  "Ġitem": 2731,
  "Ġitems": 4478,
  "Ġits": 2104,
  "Ġitself": 5863,
  "Ġj": 4331,
  "Ġjack": 3106,
  "Ġjacket": 2930,
  "Ġjar": 2238,
  "Ġjars": 3651,
  "Ġje": 2536,
  "Ġjelly": 5262,
  "Ġjet": 1752,
  "Ġjets": 4734,
  "Ġjewelry": 3680,
  "Ġjob": 503,
  "Ġjog": 2031,
  "Ġjoin": 5419,
  "Ġjoined": 4013,
  "Ġjoining": 994,
  "Ġjoins": 1958,
  "Ġjoints": 962,
  "Ġjourney": 5963,
  "Ġjoy": 2591,
  "Ġjug": 4784,
  "Ġjumped": 479,
  "Ġjumping": 4308,
  "Ġjumps": 1156,
  "Ġjungle": 800,
  "Ġjust": 3589,
  "Ġk": 2184,
  "Ġkeep": 5895,
  "Ġkeeping": 2199,
  "Ġkeeps": 3513,
  "Ġkept": 4726,
  "Ġkettle": 981,
  "Ġkey": 5941,
  "Ġkeyboard": 1169,
  "Ġkeys": 5733,
  "Ġkicked": 3381,
  "Ġkicking": 1452,
  "Ġkicks": 5139,
  "Ġkid": 4351,
  "Ġkids": 1360,
  "Ġkilling": 3544,
  "Ġkind": 3791,
  "Ġkinds": 5686,
  "Ġkitchen": 461,
  "Ġkitten": 1245,
  "Ġkn": 5624,
  "Ġknife": 1870,
  "Ġknives": 1487,
  "Ġknob": 3839,
  "Ġknock": 84,
  "Ġknocked": 3309,
  "Ġknocking": 3016,
  "Ġknocks": 3534,
  "Ġl": 2517,
  "Ġlab": 395,
  "Ġlaboratory": 3788,
  "Ġlack": 194,
  "Ġladder": 1894,
  "Ġladies": 835,
  "Ġlady": 4855,
  "Ġlag": 2232,
  "Ġlaid": 710,
  "Ġlake": 3647,
  "Ġlamb": 4267,
  "Ġlamp": 3382,
  "Ġland": 5412,
  "Ġlanding": 3363,
  "Ġlands": 703,
  "Ġlap": 3577,
  "Ġlaps": 3790,
  "Ġlarge": 2629,
  "Ġlarger": 2981,
  "Ġlaser": 3999,
  "Ġlast": 651,
  "Ġlat": 5116,
  "Ġlatch": 4142,
  "Ġlate": 253,
  "Ġlater": 4885,
  "Ġlaugh": 5415,
  "Ġlaughed": 1616,
  "Ġlaughing": 3751,
  "Ġlaughs": 3508,
  "Ġlaughter": 4147,
  "Ġlaunched": 5544,
  "Ġlaund": 2543,
  "Ġlaundry": 3438,
  "Ġlawn": 3929,
  "Ġlayer": 4778,
  "Ġlaying": 1128,
  "Ġlays": 1730,
  "Ġlead": 4086,
  "Ġleading": 4621,
  "Ġleads": 5628,
  "Ġleaf": 1122,
  "Ġleak": 4997,
  "Ġleaking": 965,
  "Ġleaks": 378,
  "Ġleans": 4261,
  "Ġleast": 5126,
  "Ġleather": 632,
  "Ġleave": 5634,
  "Ġleaves": 3933,
  "Ġleaving": 805,
  "Ġleft": 2648,
  "Ġlegs": 568,
  "Ġlength": 791,
  "Ġlengths": 1488,
  "Ġless": 975,
  "Ġlet": 4008,
  "Ġlets": 2564,
  "Ġletting": 3063,
  "Ġlevel": 4616,
  "Ġleveling": 3072,
  "Ġlevels": 1428,
  "Ġlever": 4819,
  "Ġlicking": 4858,
  "Ġlid": 306,
  "Ġlife": 5248,
  "Ġlift": 5163,
  "Ġlifted": 2584,
  "Ġlifting": 2176,
  "Ġlifts": 3103,
  "Ġlight": 1336,
  "Ġlighter": 5747,
  "Ġlighting": 1829,
  "Ġlightly": 3527,
  "Ġlightning": 3228,
  "Ġlights": 1044,
  "Ġlightweight": 4414,
  "Ġlike": 935,
  "Ġline": 2370,
  "Ġlines": 3455,
  "Ġlinks": 426,
  "Ġlips": 5407,
  "Ġliquid": 2460,
  "Ġliquids": 4104,
  "Ġlisten": 1393,
  "Ġlistening": 5650,
  "Ġlit": 1697,
  "Ġlittle": 1175,
  "Ġlive": 4192,
  "Ġlively": 529,
  "Ġload": 3909,
  "Ġloaded": 3086,
  "Ġloading": 5207,
  "Ġloads": 48,
  "Ġloc": 1023,
  "Ġlocal": 5458,
  "Ġlocated": 3380,
  "Ġlocation": 2059,
  "Ġlock": 5653,
  "Ġlocked": 1953,
  "Ġlocker": 2155,
  "Ġlocking": 1567,
  "Ġlocks": 2663,
  "Ġlocom": 1788,
  "Ġlog": 3316,
  "Ġlogs": 732,
  "Ġlone": 5236,
  "Ġlonely": 2220,
  "Ġlong": 2342,
  "Ġlonger": 2053,
  "Ġlook": 251,
  "Ġlooked": 438,
  "Ġlooking": 5232,
  "Ġlooming": 4154,
  "Ġloop": 5186,
  "Ġloose": 5276,
  "Ġlosing": 968,
  "Ġlost": 1135,
  "Ġlot": 3524,
  "Ġlots": 1498,
  "Ġloud": 2132,
  "Ġlouder": 1528,
  "Ġloudly": 32,
  "Ġloudspe": 2558,
  "Ġlow": 5558,
  "Ġlower": 3981,
  "Ġlowered": 432,
  "Ġlowering": 4427,
  "Ġlowers": 3448,
  "Ġlowly": 196,
  "Ġluggage": 4055,
  "Ġlumber": 2973,
  "Ġlunch": 734,
  "Ġlyrics": 3891,
  "Ġm": 4907,
  "Ġmachine": 3070,
  "Ġmachinery": 2568,
  "Ġmachines": 4405,
  "Ġmad": 96,
  "Ġmade": 4290,
  "Ġmagazine": 171,
  "Ġmagic": 3018,
  "Ġmail": 624,
  "Ġmain": 525,
  "Ġmajor": 5792,
  "Ġmake": 5918,
  "Ġmaker": 3807,
  "Ġmakes": 3571,
  "Ġmaking": 4986,
  "Ġmal": 2020,
  "Ġmale": 5630,
  "Ġmalf": 5614,
  "Ġman": 2890,
  "Ġmaneuver": 3159,
  "Ġmaneuvers": 1578,
  "Ġmanipulated": 4590,
  "Ġmanipulating": 2268,
  "Ġmanner": 937,
  "Ġmanual": 5315,
  "Ġmanually": 2677,
  "Ġmanufacturing": 3812,
  "Ġmany": 750,
  "Ġmap": 2251,
  "Ġmar": 4133,
  "Ġmarble": 1321,
  "Ġmarch": 4197,
  "Ġmarching": 1477,
  "Ġmarker": 4573,
  "Ġmarket": 4983,
  "Ġmarking": 1643,
  "Ġmask": 3189,
  "Ġmasked": 2913,
  "Ġmasks": 4116,
  "Ġmass": 366,
  "Ġmassive": 3022,
  "Ġmatch": 3746,
  "Ġmate": 627,
  "Ġmaterial": 3184,
  "Ġmaterials": 5022,
  "Ġmating": 3311,
  "Ġmatter": 289,
  "Ġmaximize": 5595,
  "Ġmaximum": 4,
  "Ġmay": 5260,
  "Ġmaybe": 5277,
  "Ġme": 1960,
  "Ġmeal": 5804,
  "Ġmeantime": 1308,
  "Ġmeat": 5214,
  "Ġmechan": 2015,
  "Ġmechanic": 2544,
  "Ġmechanical": 1948,
  "Ġmechanically": 3688,
  "Ġmechanics": 1552,
  "Ġmechanism": 4870,
  "Ġmechanisms": 1778,
  "Ġmedium": 3833,
  "Ġmeeting": 3042,
  "Ġmeg": 1226,
  "Ġmel": 5279,
  "Ġmell": 3191,
  "Ġmelodies": 1672,
  "Ġmelody": 4090,
  "Ġmembers": 318,
  "Ġmen": 4597,
  "Ġmenacing": 2266,
  "Ġmer": 3687,
  "Ġmessage": 2883,
  "Ġmessing": 3854,
  "Ġmet": 3251,
  "Ġmetal": 4714,
  "Ġmetallic": 3384,
  "Ġmetals": 1798,
  "Ġmeter": 3675,
  "Ġmethod": 4014,
  "Ġmetro": 1614,
  "Ġmicrophone": 2802,
  "Ġmicrowave": 5320,
  "Ġmid": 5849,
  "Ġmiddle": 1819,
  "Ġmidst": 109,
  "Ġmight": 826,
  "Ġmild": 5926,
  "Ġmildly": 292,
  "Ġmilk": 2983,
  "Ġmill": 1153,
  "Ġmim": 5889,
  "Ġmimic": 3463,
  "Ġming": 5623,
  "Ġminute": 5015,
  "Ġmis": 3971,
  "Ġmissing": 2018,
  "Ġmix": 3154,
  "Ġmixed": 5755,
  "Ġmixer": 2684,
  "Ġmixes": 716,
  "Ġmixing": 5103,
  "Ġmixture": 3535,
  "Ġmo": 580,
  "Ġmoan": 635,
  "Ġmoaning": 4811,
  "Ġmod": 5564,
  "Ġmode": 2456,
  "Ġmoderate": 818,
  "Ġmoderately": 2224,
  "Ġmodern": 2633,
  "Ġmodulation": 4466,
  "Ġmom": 2545,
  "Ġmoment": 3825,
  "Ġmomentarily": 2750,
  "Ġmoments": 323,
  "Ġmomentum": 5335,
  "Ġmon": 2455,
  "Ġmoney": 3147,
  "Ġmonkey": 3471,
  "Ġmonkeys": 646,
  "Ġmor": 1051,
  "Ġmore": 5452,
  "Ġmorning": 183,
  "Ġmosquito": 1998,
  "Ġmosquitoes": 10,
  "Ġmost": 3925,
  "Ġmostly": 5641,
  "Ġmother": 2347,
  "Ġmotion": 788,
  "Ġmotor": 2793,
  "Ġmotorcycle": 1478,
  "Ġmotorcycles": 1603,
  "Ġmotors": 4382,
  "Ġmountain": 2539,
  "Ġmouse": 475,
  "Ġmouth": 3795,
  "Ġmove": 3986,
  "Ġmoved": 3011,
  "Ġmovement": 3099,
  "Ġmovements": 5541,
  "Ġmoves": 3640,
  "Ġmovie": 5114,
  "Ġmoving": 2969,
  "Ġmuch": 3483,
  "Ġmud": 804,
  "Ġmuddy": 892,
  "Ġmuff": 3303,
  "Ġmug": 1265,
  "Ġmultiple": 5472,
  "Ġmultitude": 248,
  "Ġmur": 5459,
  "Ġmurm": 1240,
  "Ġmus": 272,
  "Ġmusic": 5874,
  "Ġmusical": 1706,
  "Ġmusician": 3821,
  "Ġmusicians": 4447,
  "Ġmust": 4105,
  "Ġmut": 4772,
  "Ġmuted": 2415,
  "Ġmy": 1017,
  "Ġmysterious": 3714,
  "Ġnail": 3866,
  "Ġnails": 4637,
  "Ġnarrow": 4618,
  "Ġnatural": 239,
  "Ġnature": 2400,
  "Ġnavig": 1310,
  "Ġnear": 4031,
  "Ġnearby": 5568,
  "Ġnearer": 5386,
  "Ġnearly": 5240,
  "Ġneck": 1063,
  "Ġnecklace": 5822,
  "Ġneed": 5938,
  "Ġneedle": 2893,
  "Ġneeds": 3186,
  "Ġneigh": 5877,
  "Ġneighborhood": 1388,
  "Ġnervous": 3024,
  "Ġnervously": 3338,
  "Ġnest": 2349,
  "Ġnever": 3556,
  "Ġnew": 5720,
  "Ġnewspaper": 4926,
  "Ġnewspapers": 911,
  "Ġnext": 4238,
  "Ġnice": 4333,
  "Ġnicely": 2235,
  "Ġnight": 421,
  "Ġnighttime": 5468,
  "Ġnine": 1305,
  "Ġno": 2595,
  "Ġnobody": 124,
  "Ġnoise": 4896,
  "Ġnoises": 2732,
  "Ġnoisy": 1691,
  "Ġnon": 2592,
  "Ġnone": 5290,
  "Ġnoon": 3166,
  "Ġnormal": 4438,
  "Ġnose": 212,
  "Ġnot": 3150,
  "Ġnote": 4110,
  "Ġnotebook": 2729,
  "Ġnotes": 1994,
  "Ġnothing": 3004,
  "Ġnotice": 2469,
  "Ġnoticeable": 2196,
  "Ġnow": 5220,
  "Ġnozzle": 4570,
  "Ġnumber": 2243,
  "Ġnumbers": 431,
  "Ġnumerous": 1369,
  "Ġnut": 696,
  "Ġnuts": 915,
  "Ġo": 126,
  "Ġobject": 1243,
  "Ġobjective": 112,
  "Ġobjects": 713,
  "Ġobliter": 87,
  "Ġobnoxious": 1198,
  "Ġobscured": 5759,
  "Ġobserved": 2341,
  "Ġobserver": 5517,
  "Ġobserving": 3741,
  "Ġobstacle": 2576,
  "Ġoccasion": 206,
  "Ġoccasional": 3761,
  "Ġoccasionally": 1491,
  "Ġoccasions": 2954,
  "Ġoccur": 2203,
  "Ġoccurring": 4056,
  "Ġoccurs": 4347,
  "Ġocean": 1164,
  "Ġoceans": 4182,
  "Ġoct": 315,
  "Ġodd": 5805,
  "Ġof": 2960,
  "Ġoff": 2461,
  "Ġoffers": 1944,
  "Ġoffice": 5662,
  "Ġofficer": 4479,
  "Ġoften": 642,
  "Ġoil": 1611,
  "Ġold": 3371,
  "Ġolder": 3476,
  "Ġominous": 5741,
  "Ġon": 4815,
  "Ġonce": 85,
  "Ġone": 3876,
  "Ġones": 5551,
  "Ġongoing": 3100,
  "Ġonly": 3811,
  "Ġonto": 786,
  "Ġopen": 5463,
  "Ġopened": 570,
  "Ġopener": 2621,
  "Ġopening": 3967,
  "Ġopens": 324,
  "Ġopera": 2383,
  "Ġoperate": 4323,
  "Ġoperated": 4178,
  "Ġoperates": 3201,
  "Ġoperating": 2241,
  "Ġoperation": 2395,
  "Ġoperational": 1389,
  "Ġoperations": 4724,
  "Ġoperator": 2125,
  "Ġopposite": 3341,
  "Ġor": 763,
  "Ġorchestra": 5043,
  "Ġorder": 5428,
  "Ġorgan": 495,
  "Ġorganized": 1816,
  "Ġorigin": 20,
  "Ġoscill": 4386,
  "Ġother": 1182,
  "Ġothers": 2936,
  "Ġotherwise": 419,
  "Ġour": 2574,
  "Ġout": 914,
  "Ġoutdoor": 4786,
  "Ġoutdoors": 4320,
  "Ġoutput": 2156,
  "Ġoutside": 3467,
  "Ġoutward": 1512,
  "Ġoven": 5610,
  "Ġover": 2294,
  "Ġoverflow": 4288,
  "Ġoverflowing": 5368,
  "Ġoverhead": 5573,
  "Ġoverheard": 4802,
  "Ġoverlap": 1377,
  "Ġoverlapping": 1054,
  "Ġoverpower": 1100,
  "Ġovert": 2358,
  "Ġow": 5147,
  "Ġowl": 1271,
  "Ġown": 3478,
  "Ġowner": 5058,
  "Ġp": 5837,
  "Ġpa": 5893,
  "Ġpace": 3146,
  "Ġpaced": 5486,
  "Ġpacing": 4827,
  "Ġpack": 2075,
  "Ġpackage": 1129,
  "Ġpackages": 1716,
  "Ġpackaging": 3813,
  "Ġpacked": 5107,
  "Ġpacket": 3082,
  "Ġpacking": 1399,
  "Ġpad": 1813,
  "Ġpadd": 3646,
  "Ġpadded": 108,
  "Ġpaddle": 3308,
  "Ġpage": 1541,
  "Ġpages": 273,
  "Ġpain": 22,
  "Ġpaint": 4810,
  "Ġpair": 5161,
  "Ġpalm": 647,
  "Ġpan": 4407,
  "Ġpane": 4951,
  "Ġpans": 3074,
  "Ġpant": 1285,
  "Ġpants": 2138,
  "Ġpaper": 509,
  "Ġpapers": 2096,
  "Ġparade": 1777,
  "Ġparents": 4675,
  "Ġpark": 2256,
  "Ġparked": 4500,
  "Ġparking": 5675,
  "Ġparks": 458,
  "Ġpart": 5708,
  "Ġpartially": 1695,
  "Ġparticular": 5392,
  "Ġparts": 5050,
  "Ġparty": 5683,
  "Ġpass": 4641,
  "Ġpassage": 1743,
  "Ġpassed": 1108,
  "Ġpassenger": 3612,
  "Ġpassengers": 565,
  "Ġpasses": 2811,
  "Ġpassing": 1382,
  "Ġpast": 5609,
  "Ġpat": 3474,
  "Ġpatch": 5836,
  "Ġpath": 4093,
  "Ġpathway": 5599,
  "Ġpatio": 656,
  "Ġpattern": 4107,
  "Ġpatterns": 1228,
  "Ġpause": 5845,
  "Ġpauses": 2715,
  "Ġpaved": 2371,
  "Ġpavement": 2190,
  "Ġpaying": 5416,
  "Ġpe": 1892,
  "Ġpeaceful": 661,
  "Ġpeacefully": 1460,
  "Ġpedal": 4035,
  "Ġpedals": 2814,
  "Ġpedestrian": 2728,
  "Ġpee": 4779,
  "Ġpel": 1681,
  "Ġpen": 1366,
  "Ġpencil": 1417,
  "Ġpend": 934,
  "Ġpenn": 5310,
  "Ġpeople": 2432,
  "Ġper": 1905,
  "Ġpercussion": 4029,
  "Ġperfectly": 300,
  "Ġperform": 999,
  "Ġperformance": 2369,
  "Ġperformed": 4476,
  "Ġperformer": 652,
  "Ġperforming": 2269,
  "Ġperforms": 3105,
  "Ġperhaps": 510,
  "Ġperiod": 5100,
  "Ġperiodic": 5411,
  "Ġperiodically": 3317,
  "Ġperiods": 860,
  "Ġpersist": 1235,
  "Ġpersistent": 845,
  "Ġpersists": 2531,
  "Ġperson": 2270,
  "Ġpersons": 2993,
  "Ġpet": 3473,
  "Ġphase": 2799,
  "Ġphone": 1176,
  "Ġphones": 5330,
  "Ġpiano": 5767,
  "Ġpick": 1536,
  "Ġpicked": 120,
  "Ġpicking": 5613,
  "Ġpicks": 971,
  "Ġpicture": 1638,
  "Ġpiece": 3900,
  "Ġpieces": 4546,
  "Ġpier": 5570,
  "Ġpiercing": 1675,
  "Ġpig": 2546,
  "Ġpigeon": 5437,
  "Ġpigs": 1447,
  "Ġpile": 5934,
  "Ġpiles": 2016,
  "Ġpiling": 4072,
  "Ġpills": 2076,
  "Ġpilot": 176,
  "Ġping": 5906,
  "Ġpipe": 351,
  "Ġpipes": 5562,
  "Ġpiping": 626,
  "Ġpistol": 2787,
  "Ġpit": 2448,
  "Ġpitch": 1479,
  "Ġpitched": 3428,
  "Ġpitcher": 4098,
  "Ġpitches": 5073,
  "Ġpl": 4225,
  "Ġplace": 2340,
  "Ġplaced": 4647,
  "Ġplaces": 3935,
  "Ġplacing": 4025,
  "Ġplain": 3763,
  "Ġplan": 2272,
  "Ġplane": 4175,
  "Ġplanes": 69,
  "Ġplank": 3625,
  "Ġplant": 2822,
  "Ġplants": 312,
  "Ġplastic": 3379,
  "Ġplate": 3859,
  "Ġplates": 2492,
  "Ġplatform": 4821,
  "Ġplay": 2990,
  "Ġplayed": 4685,
  "Ġplayer": 4962,
  "Ġplayground": 4871,
  "Ġplaying": 1356,
  "Ġplays": 3037,
  "Ġpleasant": 840,
  "Ġplug": 2396,
  "Ġplung": 5434,
  "Ġplunged": 2725,
  "Ġpocket": 1583,
  "Ġpoint": 4001,
  "Ġpoints": 1026,
  "Ġpol": 5065,
  "Ġpole": 4648,
  "Ġpolice": 2631,
  "Ġpolished": 3028,
  "Ġpolitely": 4189,
  "Ġpond": 4968,
  "Ġpool": 2675,
  "Ġpools": 720,
  "Ġpoor": 1561,
  "Ġpoorly": 3555,
  "Ġpop": 316,
  "Ġpopcorn": 3394,
  "Ġpopped": 2475,
  "Ġpopping": 2480,
  "Ġpops": 3953,
  "Ġpopular": 5117,
  "Ġpopulated": 4280,
  "Ġpor": 4662,
  "Ġporch": 5344,
  "Ġposition": 5352,
  "Ġpositioned": 4231,
  "Ġpossible": 1747,
  "Ġpossibly": 887,
  "Ġpot": 3152,
  "Ġpotato": 3066,
  "Ġpotatoes": 3402,
  "Ġpotentially": 4664,
  "Ġpots": 4446,
  "Ġpound": 4363,
  "Ġpounded": 4057,
  "Ġpounding": 2941,
  "Ġpounds": 4252,
  "Ġpour": 966,
  "Ġpoured": 3432,
  "Ġpouring": 1118,
  "Ġpower": 465,
  "Ġpowered": 725,
  "Ġpowerful": 2917,
  "Ġpowerfully": 5143,
  "Ġpowers": 4101,
  "Ġpr": 3117,
  "Ġpractices": 2259,
  "Ġpracticing": 2087,
  "Ġpreced": 1682,
  "Ġpreceded": 5581,
  "Ġprecise": 1753,
  "Ġprecisely": 5049,
  "Ġprepare": 5531,
  "Ġprepared": 50,
  "Ġprepares": 4249,
  "Ġpreparing": 4740,
  "Ġpresent": 4646,
  "Ġpresentation": 1247,
  "Ġpress": 1721,
  "Ġpressed": 741,
  "Ġpresses": 322,
  "Ġpressing": 23,
  "Ġpressure": 3584,
  "Ġpretending": 1531,
  "Ġpretty": 3258,
  "Ġprevalent": 3781,
  "Ġpri": 2966,
  "Ġprimates": 4470,
  "Ġprint": 5881,
  "Ġprinted": 596,
  "Ġprinter": 2565,
  "Ġprinting": 5676,
  "Ġprints": 3102,
  "Ġprior": 5212,
  "Ġpristine": 4630,
  "Ġproceed": 187,
  "Ġproceeding": 5426,
  "Ġproceeds": 3006,
  "Ġprocess": 5202,
  "Ġprocessed": 4557,
  "Ġproduce": 4096,
  "Ġproduced": 4806,
  "Ġproducer": 4826,
  "Ġproduces": 3090,
  "Ġproducing": 4624,
  "Ġproduct": 1027,
  "Ġproduction": 3700,
  "Ġproducts": 1995,
  "Ġprogram": 3829,
  "Ġprogress": 1099,
  "Ġprogresses": 5513,
  "Ġprogression": 3938,
  "Ġprogressively": 2445,
  "Ġprojector": 3091,
  "Ġprojects": 2336,
  "Ġprolonged": 813,
  "Ġprominent": 1551,
  "Ġprope": 5880,
  "Ġproperly": 4817,
  "Ġprovide": 3073,
  "Ġproximity": 731,
  "Ġpublic": 1078,
  "Ġpul": 1800,
  "Ġpull": 1299,
  "Ġpulled": 629,
  "Ġpulling": 4179,
  "Ġpulls": 4118,
  "Ġpuls": 4898,
  "Ġpulse": 931,
  "Ġpulses": 213,
  "Ġpump": 4613,
  "Ġpumped": 5550,
  "Ġpumping": 3511,
  "Ġpunch": 4165,
  "Ġpunching": 2273,
  "Ġpunct": 2393,
  "Ġpur": 2860,
  "Ġpure": 4177,
  "Ġpush": 4928,
  "Ġpushed": 3718,
  "Ġpushes": 4163,
  "Ġpushing": 2876,
  "Ġput": 2151,
  "Ġputs": 1557,
  "Ġputting": 2025,
  "Ġqu": 5698,
  "Ġquality": 158,
  "Ġquick": 5243,
  "Ġquicker": 3694,
  "Ġquickly": 1086,
  "Ġquiet": 332,
  "Ġquieter": 4253,
  "Ġquietly": 328,
  "Ġquir": 97,
  "Ġquite": 558,
  "Ġr": 2337,
  "Ġrac": 1580,
  "Ġrace": 5882,
  "Ġraces": 5553,
  "Ġracing": 2483,
  "Ġrack": 1770,
  "Ġracket": 942,
  "Ġradar": 456,
  "Ġradio": 3979,
  "Ġraging": 5801,
  "Ġrail": 5799,
  "Ġrailing": 446,
  "Ġrailroad": 4833,
  "Ġrails": 4018,
  "Ġrailway": 781,
  "Ġrain": 5053,
  "Ġrainfall": 3342,
  "Ġraining": 5427,
  "Ġrains": 3940,
  "Ġrainy": 5651,
  "Ġraised": 5824,
  "Ġraises": 4872,
  "Ġrake": 1866,
  "Ġramp": 883,
  "Ġran": 3915,
  "Ġrandom": 1935,
  "Ġrandomly": 2882,
  "Ġrang": 5229,
  "Ġrange": 5518,
  "Ġrap": 524,
  "Ġrapid": 2034,
  "Ġrapidly": 388,
  "Ġrat": 3824,
  "Ġrate": 114,
  "Ġrates": 3346,
  "Ġrather": 5024,
  "Ġratt": 3447,
  "Ġrattled": 4491,
  "Ġraven": 4661,
  "Ġrazor": 3369,
  "Ġre": 562,
  "Ġreach": 3217,
  "Ġreached": 4592,
  "Ġreaches": 2896,
  "Ġreaching": 2765,
  "Ġreacts": 4947,
  "Ġread": 2062,
  "Ġreading": 3029,
  "Ġreads": 3398,
  "Ġready": 5288,
  "Ġreal": 4387,
  "Ġreally": 641,
  "Ġrear": 4250,
  "Ġrearr": 1880,
  "Ġreason": 1964,
  "Ġrebounds": 3756,
  "Ġrec": 2818,
  "Ġreceiver": 1021,
  "Ġreceives": 3477,
  "Ġrecept": 3973,
  "Ġreception": 5765,
  "Ġrecess": 5095,
  "Ġrecognizable": 4891,
  "Ġrecord": 209,
  "Ġrecorded": 5894,
  "Ġrecorder": 301,
  "Ġrecording": 2911,
  "Ġrecords": 1924,
  "Ġrecycling": 258,
  "Ġreduces": 1545,
  "Ġreel": 5738,
  "Ġreeling": 1146,
  "Ġref": 5380,
  "Ġreferee": 922,
  "Ġregister": 5251,
  "Ġregisters": 2861,
  "Ġregular": 2484,
  "Ġregularly": 3636,
  "Ġrelatively": 4157,
  "Ġrelaxed": 3061,
  "Ġrelease": 1913,
  "Ġreleased": 4402,
  "Ġreleases": 270,
  "Ġreleasing": 4380,
  "Ġreligious": 4922,
  "Ġremain": 1566,
  "Ġremaining": 1836,
  "Ġremains": 2206,
  "Ġreminds": 1976,
  "Ġreminiscent": 1340,
  "Ġremote": 2149,
  "Ġremove": 3391,
  "Ġremoved": 951,
  "Ġremoves": 1327,
  "Ġremoving": 2815,
  "Ġrendered": 1794,
  "Ġrep": 1884,
  "Ġrepair": 2130,
  "Ġrepaired": 2387,
  "Ġrepeat": 362,
  "Ġrepeated": 5424,
  "Ġrepeatedly": 199,
  "Ġrepeating": 5282,
  "Ġrepeats": 1471,
  "Ġrepet": 1524,
  "Ġrepetitive": 2746,
  "Ġreplaced": 2606,
  "Ġreplaces": 61,
  "Ġres": 1783,
  "Ġresemble": 2402,
  "Ġreservoir": 3596,
  "Ġreset": 3292,
  "Ġreson": 5223,
  "Ġresonance": 5753,
  "Ġresonate": 1300,
  "Ġresponding": 1213,
  "Ġresponds": 964,
  "Ġresponse": 4542,
  "Ġresponses": 2780,
  "Ġrest": 4024,
  "Ġrestart": 434,
  "Ġrestaurant": 3561,
  "Ġresting": 3026,
  "Ġrestricted": 451,
  "Ġrests": 1014,
  "Ġresult": 520,
  "Ġresume": 3165,
  "Ġresumes": 2720,
  "Ġretrie": 4439,
  "Ġreturn": 4081,
  "Ġreturned": 3153,
  "Ġreturning": 5674,
  "Ġreturns": 5042,
  "Ġrev": 18,
  "Ġreveals": 2506,
  "Ġrevel": 4981,
  "Ġreverber": 1469,
  "Ġrevers": 2721,
  "Ġreverse": 448,
  "Ġreversing": 865,
  "Ġrevolves": 5397,
  "Ġrevolving": 3660,
  "Ġrhyth": 3777,
  "Ġrhythm": 305,
  "Ġrhythms": 4108,
  "Ġrib": 5284,
  "Ġrice": 4109,
  "Ġridden": 3177,
  "Ġride": 5063,
  "Ġrides": 5371,
  "Ġriding": 5637,
  "Ġrifles": 5450,
  "Ġrig": 3703,
  "Ġright": 5356,
  "Ġrim": 1956,
  "Ġring": 2762,
  "Ġringing": 208,
  "Ġrings": 1073,
  "Ġripped": 4678,
  "Ġripping": 5395,
  "Ġrise": 59,
  "Ġrises": 5293,
  "Ġrising": 1673,
  "Ġriver": 1242,
  "Ġro": 4234,
  "Ġroad": 5740,
  "Ġroads": 1763,
  "Ġroadside": 4047,
  "Ġroadway": 2006,
  "Ġroar": 5106,
  "Ġroared": 3798,
  "Ġroaring": 2498,
  "Ġrobotic": 407,
  "Ġrobust": 51,
  "Ġrock": 3445,
  "Ġrocked": 3348,
  "Ġrocket": 3443,
  "Ġrocking": 5227,
  "Ġrocks": 1152,
  "Ġrocky": 2959,
  "Ġrod": 224,
  "Ġrode": 809,
  "Ġroll": 3980,
  "Ġrolled": 319,
  "Ġroller": 5905,
  "Ġrolling": 556,
  "Ġrolls": 5855,
  "Ġroof": 4403,
  "Ġroofs": 5482,
  "Ġrooft": 345,
  "Ġrooftop": 3484,
  "Ġroom": 2447,
  "Ġrooms": 2320,
  "Ġrope": 3052,
  "Ġrot": 4368,
  "Ġrotate": 3033,
  "Ġrotated": 5588,
  "Ġrotating": 2148,
  "Ġrotation": 92,
  "Ġrotor": 5644,
  "Ġrough": 4430,
  "Ġroughly": 2681,
  "Ġround": 4972,
  "Ġroutine": 5492,
  "Ġrow": 2904,
  "Ġrub": 612,
  "Ġrubbed": 5791,
  "Ġrubber": 1170,
  "Ġrubbing": 30,
  "Ġrum": 1422,
  "Ġrun": 1519,
  "Ġrunning": 4102,
  "Ġruns": 3039,
  "Ġrunway": 3203,
  "Ġrural": 2133,
  "Ġrush": 5039,
  "Ġrushed": 2310,
  "Ġrushes": 299,
  "Ġrushing": 1920,
  "Ġrust": 2063,
  "Ġrusty": 5297,
  "Ġs": 4053,
  "Ġsa": 1102,
  "Ġsafety": 1978,
  "Ġsaid": 5329,
  "Ġsail": 3271,
  "Ġsailing": 4316,
  "Ġsame": 3952,
  "Ġsample": 1444,
  "Ġsanctuary": 190,
  "Ġsand": 1397,
  "Ġsands": 4773,
  "Ġsandy": 1113,
  "Ġsang": 1349,
  "Ġsat": 1248,
  "Ġsaw": 3386,
  "Ġsax": 1575,
  "Ġsaying": 802,
  "Ġsays": 4712,
  "Ġsc": 382,
  "Ġscales": 5041,
  "Ġscan": 5827,
  "Ġscanner": 4954,
  "Ġscanning": 4222,
  "Ġscans": 2964,
  "Ġscared": 5896,
  "Ġscary": 3827,
  "Ġscatter": 4665,
  "Ġscattered": 4044,
  "Ġscene": 128,
  "Ġschool": 5270,
  "Ġscience": 552,
  "Ġscissors": 2598,
  "Ġscoop": 1690,
  "Ġscr": 2136,
  "Ġscra": 2575,
  "Ġscramble": 5467,
  "Ġscrap": 3163,
  "Ġscrape": 3624,
  "Ġscraping": 958,
  "Ġscrapped": 2953,
  "Ġscratch": 3353,
  "Ġscratched": 5272,
  "Ġscratches": 1145,
  "Ġscratching": 595,
  "Ġscream": 4745,
  "Ġscreamed": 4153,
  "Ġscreaming": 653,
  "Ġscreams": 3401,
  "Ġscree": 3334,
  "Ġscreen": 1790,
  "Ġscrew": 5864,
  "Ġscrews": 3966,
  "Ġscrib": 879,
  "Ġscrub": 3356,
  "Ġse": 5851,
  "Ġsea": 3670,
  "Ġsealed": 2877,
  "Ġsearch": 2067,
  "Ġsearched": 5726,
  "Ġsearches": 5070,
  "Ġsearching": 2935,
  "Ġseated": 574,
  "Ġsecond": 359,
  "Ġseconds": 5166,
  "Ġsection": 4450,
  "Ġsecured": 1466,
  "Ġsecuring": 3286,
  "Ġsee": 1635,
  "Ġseeds": 3355,
  "Ġseem": 3313,
  "Ġseems": 4065,
  "Ġseen": 2985,
  "Ġsees": 2687,
  "Ġselecting": 3010,
  "Ġselection": 578,
  "Ġself": 5567,
  "Ġsemi": 4365,
  "Ġsending": 1345,
  "Ġseparate": 1766,
  "Ġsequence": 408,
  "Ġsequences": 383,
  "Ġseries": 2548,
  "Ġservice": 3705,
  "Ġservices": 1209,
  "Ġset": 329,
  "Ġsets": 4451,
  "Ġsetting": 3864,
  "Ġsettings": 5842,
  "Ġsettled": 2610,
  "Ġsettling": 1315,
  "Ġseven": 230,
  "Ġseveral": 1380,
  "Ġsevere": 3506,
  "Ġsewing": 4051,
  "Ġsh": 3128,
  "Ġshaft": 4144,
  "Ġshake": 2894,
  "Ġshaken": 4313,
  "Ġshakes": 1539,
  "Ġshaking": 4995,
  "Ġshallow": 5922,
  "Ġshape": 2737,
  "Ġshaped": 134,
  "Ġshapes": 1596,
  "Ġshar": 541,
  "Ġshards": 548,
  "Ġsharp": 105,
  "Ġsharply": 5045,
  "Ġshattered": 4883,
  "Ġshaving": 1489,
  "Ġshe": 677,
  "Ġshed": 439,
  "Ġsheep": 3304,
  "Ġsheet": 4268,
  "Ġsheets": 3067,
  "Ġshelf": 3192,
  "Ġshielded": 1441,
  "Ġshift": 2114,
  "Ġshifted": 2840,
  "Ġshifting": 2276,
  "Ġshifts": 2378,
  "Ġship": 3841,
  "Ġships": 1362,
  "Ġshoes": 5228,
  "Ġshook": 5787,
  "Ġshoot": 589,
  "Ġshooting": 5964,
  "Ġshoots": 2718,
  "Ġshop": 4601,
  "Ġshoppers": 4396,
  "Ġshopping": 3860,
  "Ġshore": 670,
  "Ġshores": 5512,
  "Ġshort": 3436,
  "Ġshorter": 5696,
  "Ġshortly": 1034,
  "Ġshot": 2451,
  "Ġshots": 5319,
  "Ġshout": 5884,
  "Ġshouting": 5704,
  "Ġshouts": 3298,
  "Ġshovel": 3878,
  "Ġshow": 1449,
  "Ġshower": 2079,
  "Ġshowers": 4049,
  "Ġshowing": 4780,
  "Ġshr": 255,
  "Ġshred": 3211,
  "Ġshri": 884,
  "Ġshrimp": 40,
  "Ġshuff": 5754,
  "Ġshuffle": 1649,
  "Ġshut": 401,
  "Ġshuts": 3278,
  "Ġshutting": 4006,
  "Ġside": 1619,
  "Ġsides": 1674,
  "Ġsidewalk": 4126,
  "Ġsidewalks": 5843,
  "Ġsigh": 1065,
  "Ġsighed": 1258,
  "Ġsight": 2611,
  "Ġsign": 649,
  "Ġsignal": 3648,
  "Ġsignaling": 5206,
  "Ġsignals": 3239,
  "Ġsignificant": 4111,
  "Ġsignificantly": 4125,
  "Ġsigns": 2403,
  "Ġsilence": 4868,
  "Ġsilenced": 102,
  "Ġsilent": 1835,
  "Ġsilently": 709,
  "Ġsill": 2444,
  "Ġsilver": 1735,
  "Ġsimilar": 1662,
  "Ġsimple": 631,
  "Ġsimultaneously": 4563,
  "Ġsing": 2939,
  "Ġsinger": 2756,
  "Ġsinging": 2464,
  "Ġsingle": 4566,
  "Ġsings": 2566,
  "Ġsink": 2938,
  "Ġsinking": 2113,
  "Ġsip": 364,
  "Ġsit": 4170,
  "Ġsite": 1827,
  "Ġsits": 1066,
  "Ġsitting": 1738,
  "Ġsix": 4783,
  "Ġsize": 5869,
  "Ġsized": 3482,
  "Ġsizes": 1950,
  "Ġsk": 1430,
  "Ġskate": 5612,
  "Ġskill": 260,
  "Ġskillet": 1409,
  "Ġskipping": 5924,
  "Ġsky": 4243,
  "Ġsl": 761,
  "Ġslam": 5577,
  "Ġslammed": 1341,
  "Ġslamming": 5920,
  "Ġslams": 2972,
  "Ġslap": 7,
  "Ġslapping": 1188,
  "Ġslashing": 1052,
  "Ġsleep": 3553,
  "Ġsleeping": 1043,
  "Ġsleeps": 5079,
  "Ġslew": 151,
  "Ġsliced": 133,
  "Ġslices": 5716,
  "Ġslicing": 4993,
  "Ġslid": 1740,
  "Ġslide": 902,
  "Ġslides": 1692,
  "Ġsliding": 1391,
  "Ġslight": 5454,
  "Ġslightly": 1236,
  "Ġslow": 679,
  "Ġslowed": 4469,
  "Ġslower": 1982,
  "Ġslowing": 1343,
  "Ġslowly": 4472,
  "Ġslows": 810,
  "Ġslur": 537,
  "Ġsm": 5596,
  "Ġsmall": 2901,
  "Ġsmaller": 3038,
  "Ġsmashing": 5064,
  "Ġsmoke": 4257,
  "Ġsmooth": 3886,
  "Ġsmoothly": 2168,
  "Ġsn": 4975,
  "Ġsnack": 504,
  "Ġsnake": 4524,
  "Ġsnap": 1458,
  "Ġsnapped": 847,
  "Ġsnapping": 3388,
  "Ġsnaps": 417,
  "Ġsne": 3674,
  "Ġsniff": 4820,
  "Ġsnow": 3175,
  "Ġsnowy": 1795,
  "Ġso": 4610,
  "Ġsoap": 5727,
  "Ġsocial": 3775,
  "Ġsocket": 2318,
  "Ġsoda": 311,
  "Ġsoft": 2626,
  "Ġsofter": 769,
  "Ġsoftly": 5806,
  "Ġsoil": 287,
  "Ġsol": 723,
  "Ġsole": 485,
  "Ġsolid": 3562,
  "Ġsome": 2846,
  "Ġsomebody": 775,
  "Ġsomeone": 1739,
  "Ġsomething": 5710,
  "Ġsometimes": 5657,
  "Ġsomewhat": 3910,
  "Ġsomewhere": 4749,
  "Ġson": 5682,
  "Ġsong": 3031,
  "Ġsongs": 3396,
  "Ġsonic": 3998,
  "Ġsoon": 3255,
  "Ġsoothing": 3661,
  "Ġsort": 2029,
  "Ġsorted": 4399,
  "Ġsorting": 1715,
  "Ġsorts": 4766,
  "Ġsound": 3413,
  "Ġsounded": 5144,
  "Ġsounding": 872,
  "Ġsounds": 3769,
  "Ġsoundtrack": 3964,
  "Ġsource": 203,
  "Ġsources": 2797,
  "Ġsp": 1628,
  "Ġspace": 192,
  "Ġspacecraft": 228,
  "Ġspaced": 2646,
  "Ġspark": 2640,
  "Ġsparking": 2233,
  "Ġsparks": 691,
  "Ġspat": 1107,
  "Ġspeak": 5439,
  "Ġspeaker": 3054,
  "Ġspeakers": 1637,
  "Ġspeaking": 4522,
  "Ġspeaks": 2246,
  "Ġspecies": 2533,
  "Ġspecific": 2906,
  "Ġspectators": 4203,
  "Ġspectrum": 3281,
  "Ġsped": 3732,
  "Ġspeech": 3323,
  "Ġspeed": 290,
  "Ġspeeding": 5725,
  "Ġspeeds": 5921,
  "Ġspider": 534,
  "Ġspilling": 5311,
  "Ġspills": 5158,
  "Ġspin": 453,
  "Ġspinning": 4262,
  "Ġspins": 4582,
  "Ġspit": 830,
  "Ġspl": 5162,
  "Ġsplash": 4152,
  "Ġsplitting": 5074,
  "Ġspoke": 348,
  "Ġsponge": 4553,
  "Ġspoon": 4536,
  "Ġspor": 5552,
  "Ġsporadic": 3517,
  "Ġsport": 5736,
  "Ġsporting": 3802,
  "Ġsports": 2898,
  "Ġspot": 5655,
  "Ġspr": 4974,
  "Ġspray": 3185,
  "Ġsprayed": 47,
  "Ġspraying": 462,
  "Ġspread": 330,
  "Ġspring": 5813,
  "Ġsprink": 482,
  "Ġsprinkle": 470,
  "Ġsprinkled": 3930,
  "Ġspun": 894,
  "Ġspur": 1439,
  "Ġsqu": 824,
  "Ġsquare": 4541,
  "Ġsque": 1276,
  "Ġsquee": 2521,
  "Ġsqueezed": 3512,
  "Ġsqueezing": 4481,
  "Ġst": 5944,
  "Ġstack": 368,
  "Ġstacked": 3145,
  "Ġstacking": 938,
  "Ġstadium": 2638,
  "Ġstage": 4281,
  "Ġstair": 3657,
  "Ġstaircase": 3560,
  "Ġstairs": 3988,
  "Ġstall": 3466,
  "Ġstalls": 4185,
  "Ġstamp": 1359,
  "Ġstamped": 2573,
  "Ġstamps": 1540,
  "Ġstand": 3686,
  "Ġstandard": 3934,
  "Ġstandby": 856,
  "Ġstanding": 655,
  "Ġstands": 1656,
  "Ġstaple": 405,
  "Ġstaples": 5353,
  "Ġstaring": 1468,
  "Ġstart": 3418,
  "Ġstarted": 2394,
  "Ġstarting": 929,
  "Ġstarts": 3176,
  "Ġstate": 5327,
  "Ġstates": 2361,
  "Ġstatic": 1959,
  "Ġstation": 2928,
  "Ġstationary": 3231,
  "Ġstations": 4864,
  "Ġstays": 4321,
  "Ġste": 5066,
  "Ġsteadily": 3797,
  "Ġsteady": 4318,
  "Ġsteam": 2766,
  "Ġsteel": 3600,
  "Ġsteep": 2534,
  "Ġstep": 3092,
  "Ġstepped": 3701,
  "Ġstepping": 3644,
  "Ġsteps": 3460,
  "Ġstereo": 5680,
  "Ġstick": 1200,
  "Ġstickers": 774,
  "Ġsticking": 563,
  "Ġsticks": 2996,
  "Ġsticky": 5483,
  "Ġstiff": 2350,
  "Ġstill": 418,
  "Ġstir": 1062,
  "Ġstirred": 2583,
  "Ġstirring": 897,
  "Ġstock": 2502,
  "Ġstomp": 2326,
  "Ġstone": 5441,
  "Ġstones": 2253,
  "Ġstood": 1791,
  "Ġstop": 4507,
  "Ġstopped": 864,
  "Ġstopping": 4503,
  "Ġstops": 5947,
  "Ġstore": 2578,
  "Ġstorm": 1077,
  "Ġstorms": 5406,
  "Ġstove": 3013,
  "Ġstr": 1022,
  "Ġstraight": 2924,
  "Ġstrange": 3276,
  "Ġstraw": 1728,
  "Ġstream": 486,
  "Ġstreaming": 4449,
  "Ġstreams": 3002,
  "Ġstreet": 493,
  "Ġstreets": 2910,
  "Ġstrength": 660,
  "Ġstressing": 5729,
  "Ġstretched": 3328,
  "Ġstretches": 5705,
  "Ġstrides": 5820,
  "Ġstrike": 34,
  "Ġstrikes": 452,
  "Ġstriking": 4514,
  "Ġstring": 2345,
  "Ġstrings": 2356,
  "Ġstrips": 4619,
  "Ġstro": 2311,
  "Ġstroke": 2524,
  "Ġstrokes": 3692,
  "Ġstroll": 1193,
  "Ġstrong": 1115,
  "Ġstronger": 1525,
  "Ġstrongly": 1831,
  "Ġstruck": 908,
  "Ġstructure": 2186,
  "Ġstruggle": 205,
  "Ġstruggles": 2413,
  "Ġstruggling": 2654,
  "Ġstuck": 1726,
  "Ġstudents": 3587,
  "Ġstuff": 4426,
  "Ġstyle": 3114,
  "Ġstyles": 3358,
  "Ġsu": 916,
  "Ġsubstance": 3959,
  "Ġsubstantial": 1701,
  "Ġsubtle": 223,
  "Ġsubway": 4149,
  "Ġsucceeded": 4737,
  "Ġsuccess": 4920,
  "Ġsuccession": 1339,
  "Ġsuch": 4850,
  "Ġsucked": 4191,
  "Ġsucking": 2636,
  "Ġsudden": 4264,
  "Ġsuddenly": 5719,
  "Ġsugar": 4070,
  "Ġsuitcase": 2287,
  "Ġsummer": 1966,
  "Ġsunny": 5794,
  "Ġsuper": 2317,
  "Ġsupply": 5142,
  "Ġsure": 4401,
  "Ġsurf": 1168,
  "Ġsurface": 302,
  "Ġsurfaces": 2761,
  "Ġsurrounded": 271,
  "Ġsurrounding": 2084,
  "Ġsurroundings": 4805,
  "Ġsuspense": 5618,
  "Ġsustained": 2094,
  "Ġsw": 1979,
  "Ġswall": 284,
  "Ġswamp": 3429,
  "Ġswarm": 5373,
  "Ġswat": 5572,
  "Ġsway": 4020,
  "Ġswayed": 4286,
  "Ġswe": 643,
  "Ġsweep": 3218,
  "Ġsweeping": 686,
  "Ġsweeps": 3180,
  "Ġsweet": 89,
  "Ġswept": 3434,
  "Ġswiftly": 5460,
  "Ġswim": 4336,
  "Ġswimming": 484,
  "Ġswing": 880,
  "Ġswinging": 2881,
  "Ġswings": 3893,
  "Ġswirl": 4640,
  "Ġswirling": 4484,
  "Ġswitch": 2110,
  "Ġswitched": 5281,
  "Ġswitches": 5559,
  "Ġswitching": 5730,
  "Ġswords": 758,
  "Ġswung": 753,
  "Ġsym": 2863,
  "Ġsynchron": 1862,
  "Ġsynth": 1015,
  "Ġsynthes": 5308,
  "Ġsynthetic": 1139,
  "Ġsystem": 3149,
  "Ġsystematic": 5593,
  "Ġsystematically": 4244,
  "Ġt": 5016,
  "Ġtable": 4889,
  "Ġtables": 3118,
  "Ġtablespoon": 435,
  "Ġtabletop": 2777,
  "Ġtail": 4097,
  "Ġtake": 530,
  "Ġtaken": 2217,
  "Ġtakeoff": 954,
  "Ġtakes": 1402,
  "Ġtaking": 766,
  "Ġtalk": 5875,
  "Ġtalked": 4509,
  "Ġtalking": 3140,
  "Ġtalks": 4210,
  "Ġtall": 2789,
  "Ġtandem": 1293,
  "Ġtank": 1762,
  "Ġtap": 1652,
  "Ġtape": 1475,
  "Ġtaped": 1167,
  "Ġtapped": 2900,
  "Ġtapping": 4844,
  "Ġtaps": 3881,
  "Ġtarget": 2963,
  "Ġtask": 4672,
  "Ġtasks": 1825,
  "Ġte": 2328,
  "Ġtea": 2719,
  "Ġteacher": 3779,
  "Ġteam": 412,
  "Ġtearing": 5184,
  "Ġtears": 161,
  "Ġteeth": 5005,
  "Ġtelephone": 288,
  "Ġtelevision": 2159,
  "Ġtelling": 4863,
  "Ġtells": 1050,
  "Ġtemperature": 367,
  "Ġtemple": 871,
  "Ġtempo": 3468,
  "Ġten": 3088,
  "Ġtending": 3872,
  "Ġtennis": 4639,
  "Ġtent": 936,
  "Ġtermin": 5253,
  "Ġterminal": 2586,
  "Ġterrain": 4654,
  "Ġterrible": 2078,
  "Ġtested": 683,
  "Ġtesting": 4083,
  "Ġtext": 5384,
  "Ġth": 5364,
  "Ġthan": 91,
  "Ġthat": 4554,
  "Ġthe": 2249,
  "Ġtheater": 2589,
  "Ġtheir": 427,
  "Ġthem": 3496,
  "Ġtheme": 2541,
  "Ġthemselves": 4236,
  "Ġthen": 615,
  "Ġthere": 3049,
  "Ġthey": 4039,
  "Ġthick": 496,
  "Ġthin": 2805,
  "Ġthing": 1718,
  "Ġthings": 5072,
  "Ġthird": 3472,
  "Ġthirteen": 2123,
  "Ġthis": 2005,
  "Ġthoroughly": 2951,
  "Ġthose": 4128,
  "Ġthough": 4666,
  "Ġthr": 972,
  "Ġthreatening": 2509,
  "Ġthree": 508,
  "Ġthrew": 5190,
  "Ġthro": 4488,
  "Ġthroat": 4798,
  "Ġthrott": 5723,
  "Ġthrough": 3658,
  "Ġthroughout": 1903,
  "Ġthrow": 501,
  "Ġthrowing": 1746,
  "Ġthrown": 2212,
  "Ġthrows": 2056,
  "Ġthumb": 3131,
  "Ġthunder": 5778,
  "Ġtick": 5462,
  "Ġticking": 281,
  "Ġticks": 3245,
  "Ġtide": 4307,
  "Ġtides": 1949,
  "Ġtight": 2697,
  "Ġtightened": 5847,
  "Ġtightening": 4245,
  "Ġtightly": 4594,
  "Ġtile": 5709,
  "Ġtill": 3879,
  "Ġtim": 1904,
  "Ġtime": 1155,
  "Ġtimer": 2639,
  "Ġtimes": 3199,
  "Ġtiming": 5350,
  "Ġtin": 474,
  "Ġtink": 2776,
  "Ġtint": 989,
  "Ġtiny": 1946,
  "Ġtire": 4731,
  "Ġtired": 2836,
  "Ġtires": 2179,
  "Ġto": 3035,
  "Ġtoast": 5948,
  "Ġtoday": 4867,
  "Ġtoddler": 5830,
  "Ġtogether": 440,
  "Ġtoilet": 1262,
  "Ġtold": 1261,
  "Ġtoll": 3630,
  "Ġton": 3365,
  "Ġtone": 5540,
  "Ġtones": 4246,
  "Ġtongue": 2845,
  "Ġtoo": 4158,
  "Ġtook": 1737,
  "Ġtool": 4376,
  "Ġtools": 5321,
  "Ġtooth": 2048,
  "Ġtop": 2280,
  "Ġtorch": 682,
  "Ġtorn": 5607,
  "Ġtorrent": 2817,
  "Ġtossed": 5707,
  "Ġtossing": 650,
  "Ġtotal": 2989,
  "Ġtouch": 4893,
  "Ġtouched": 2315,
  "Ġtouching": 3224,
  "Ġtoward": 492,
  "Ġtowards": 185,
  "Ġtowel": 4009,
  "Ġtower": 3970,
  "Ġtown": 3139,
  "Ġtoy": 5017,
  "Ġtr": 2988,
  "Ġtrack": 309,
  "Ġtracks": 4370,
  "Ġtractor": 5131,
  "Ġtraditional": 1111,
  "Ġtraffic": 2597,
  "Ġtrail": 2055,
  "Ġtrailer": 4753,
  "Ġtrailing": 5859,
  "Ġtrails": 1928,
  "Ġtrain": 4825,
  "Ġtrains": 2865,
  "Ġtram": 3200,
  "Ġtransistor": 3470,
  "Ġtransmission": 2668,
  "Ġtransport": 515,
  "Ġtransportation": 4219,
  "Ġtrapped": 4159,
  "Ġtrash": 2889,
  "Ġtravel": 5305,
  "Ġtravelling": 5575,
  "Ġtravels": 4327,
  "Ġtread": 4045,
  "Ġtreadmill": 4668,
  "Ġtree": 3307,
  "Ġtrees": 3591,
  "Ġtriangle": 3403,
  "Ġtrick": 2134,
  "Ġtrickle": 4463,
  "Ġtried": 1803,
  "Ġtries": 2263,
  "Ġtriggers": 1410,
  "Ġtrim": 2028,
  "Ġtro": 5795,
  "Ġtropical": 476,
  "Ġtrouble": 2991,
  "Ġtrough": 365,
  "Ġtruck": 706,
  "Ġtrucks": 5818,
  "Ġtrump": 5461,
  "Ġtrumpet": 201,
  "Ġtry": 2061,
  "Ġtrying": 1509,
  "Ġtub": 5746,
  "Ġtube": 4415,
  "Ġtun": 3007,
  "Ġtune": 567,
  "Ġtuned": 3500,
  "Ġtunes": 3599,
  "Ġtuning": 3932,
  "Ġtunnel": 4346,
  "Ġtunnels": 4477,
  "Ġtur": 83,
  "Ġturb": 4395,
  "Ġturbine": 3347,
  "Ġturbulence": 317,
  "Ġturn": 1897,
  "Ġturned": 437,
  "Ġturning": 3213,
  "Ġturns": 1274,
  "Ġtv": 2624,
  "Ġtw": 3385,
  "Ġtweet": 711,
  "Ġtweeting": 142,
  "Ġtweets": 1511,
  "Ġtwelve": 4508,
  "Ġtwenty": 1993,
  "Ġtwice": 2366,
  "Ġtwisting": 358,
  "Ġtwitter": 4606,
  "Ġtwo": 5101,
  "Ġtype": 3181,
  "Ġtypes": 5527,
  "Ġtypew": 5661,
  "Ġtypical": 2572,
  "Ġtyping": 384,
  "Ġu": 2236,
  "Ġultimately": 5109,
  "Ġun": 913,
  "Ġunab": 129,
  "Ġunc": 587,
  "Ġunder": 4066,
  "Ġunderground": 2277,
  "Ġunderneath": 2899,
  "Ġunderscores": 2943,
  "Ġunderstand": 3274,
  "Ġunderwater": 1438,
  "Ġuneven": 3169,
  "Ġunint": 31,
  "Ġuninterrupted": 3992,
  "Ġunique": 4659,
  "Ġunison": 4602,
  "Ġunit": 1012,
  "Ġunknown": 898,
  "Ġunl": 2744,
  "Ġunlock": 4139,
  "Ġunlocked": 44,
  "Ġunlocking": 5213,
  "Ġunlocks": 4112,
  "Ġunpleasant": 1501,
  "Ġunst": 2623,
  "Ġunsuccessfully": 827,
  "Ġuntil": 1711,
  "Ġunusual": 4791,
  "Ġunw": 820,
  "Ġup": 1658,
  "Ġupbeat": 572,
  "Ġupcoming": 4490,
  "Ġupon": 1495,
  "Ġups": 3563,
  "Ġupside": 1504,
  "Ġupstairs": 5848,
  "Ġupward": 4888,
  "Ġur": 5665,
  "Ġurban": 1787,
  "Ġurgent": 8,
  "Ġurgently": 3195,
  "Ġus": 5118,
  "Ġuse": 5867,
  "Ġused": 5942,
  "Ġuser": 4311,
  "Ġuses": 4378,
  "Ġusing": 4248,
  "Ġusual": 1370,
  "Ġut": 4721,
  "Ġutilized": 5560,
  "Ġvac": 4342,
  "Ġvacant": 4750,
  "Ġvacuum": 4513,
  "Ġvague": 1869,
  "Ġvalve": 5912,
  "Ġvariable": 3273,
  "Ġvaried": 5367,
  "Ġvaries": 5188,
  "Ġvarieties": 166,
  "Ġvariety": 876,
  "Ġvarious": 285,
  "Ġvarying": 3423,
  "Ġvast": 2712,
  "Ġvault": 2470,
  "Ġvegetable": 1376,
  "Ġvegetables": 2520,
  "Ġvegetation": 5510,
  "Ġvehicle": 2666,
  "Ġvehicles": 4026,
  "Ġvelocity": 2024,
  "Ġvending": 4689,
  "Ġvent": 2581,
  "Ġventilation": 3225,
  "Ġvery": 991,
  "Ġvessel": 5516,
  "Ġvessels": 666,
  "Ġvia": 3619,
  "Ġvibr": 2296,
  "Ġvibrant": 939,
  "Ġvibration": 4315,
  "Ġvibrations": 3783,
  "Ġvideo": 4209,
  "Ġview": 721,
  "Ġviewed": 5138,
  "Ġvigorous": 1962,
  "Ġvigorously": 2417,
  "Ġviol": 618,
  "Ġviolently": 4720,
  "Ġviolin": 3077,
  "Ġvocal": 2507,
  "Ġvoice": 963,
  "Ġvoices": 1033,
  "Ġvol": 2676,
  "Ġvolume": 5907,
  "Ġvolumes": 347,
  "Ġw": 5108,
  "Ġwagon": 5313,
  "Ġwait": 4924,
  "Ġwaiting": 3581,
  "Ġwaitress": 5135,
  "Ġwaits": 3412,
  "Ġwake": 912,
  "Ġwakes": 1921,
  "Ġwalk": 5385,
  "Ġwalked": 6,
  "Ġwalking": 4208,
  "Ġwalks": 242,
  "Ġwall": 2282,
  "Ġwalls": 5038,
  "Ġwar": 609,
  "Ġware": 4356,
  "Ġwarehouse": 743,
  "Ġwarm": 5299,
  "Ġwarming": 1304,
  "Ġwarn": 584,
  "Ġwarning": 1744,
  "Ġwarns": 2160,
  "Ġwarped": 4831,
  "Ġwas": 5060,
  "Ġwash": 2117,
  "Ġwashed": 885,
  "Ġwashing": 690,
  "Ġwaste": 1278,
  "Ġwatch": 1518,
  "Ġwatches": 4822,
  "Ġwatching": 5844,
  "Ġwater": 5326,
  "Ġwaterfall": 1907,
  "Ġwaters": 45,
  "Ġwave": 4190,
  "Ġwaves": 2764,
  "Ġwax": 2169,
  "Ġway": 1850,
  "Ġways": 1390,
  "Ġwe": 3845,
  "Ġweak": 3816,
  "Ġweapon": 2618,
  "Ġwearing": 2353,
  "Ġweather": 3243,
  "Ġweaving": 3435,
  "Ġweb": 3190,
  "Ġweed": 3370,
  "Ġweeds": 3664,
  "Ġweight": 2107,
  "Ġweird": 950,
  "Ġwelding": 1593,
  "Ġwell": 3874,
  "Ġwent": 1178,
  "Ġwere": 5784,
  "Ġwet": 2466,
  "Ġwh": 5929,
  "Ġwhales": 4091,
  "Ġwhat": 1577,
  "Ġwheel": 2505,
  "Ġwheels": 2884,
  "Ġwhen": 1750,
  "Ġwhere": 1434,
  "Ġwhich": 787,
  "Ġwhile": 5242,
  "Ġwhilst": 5097,
  "Ġwhim": 2255,
  "Ġwhine": 4272,
  "Ġwhining": 5615,
  "Ġwhip": 3494,
  "Ġwhipping": 1130,
  "Ġwhisper": 4794,
  "Ġwhispered": 4560,
  "Ġwhispering": 4708,
  "Ġwhispers": 2081,
  "Ġwhist": 4861,
  "Ġwhistle": 1556,
  "Ġwhite": 4991,
  "Ġwho": 2604,
  "Ġwhole": 2771,
  "Ġwhom": 3857,
  "Ġwhose": 4985,
  "Ġwide": 3441,
  "Ġwild": 5019,
  "Ġwilderness": 3669,
  "Ġwildlife": 3343,
  "Ġwill": 3753,
  "Ġwind": 4404,
  "Ġwinding": 3780,
  "Ġwindow": 98,
  "Ġwindows": 1070,
  "Ġwinds": 663,
  "Ġwindshield": 5946,
  "Ġwine": 1294,
  "Ġwing": 3065,
  "Ġwings": 1204,
  "Ġwinter": 3015,
  "Ġwip": 684,
  "Ġwiping": 678,
  "Ġwire": 2617,
  "Ġwith": 344,
  "Ġwithin": 5786,
  "Ġwithout": 4114,
  "Ġwo": 1333,
  "Ġwolf": 4486,
  "Ġwolves": 4900,
  "Ġwoman": 3804,
  "Ġwomen": 3126,
  "Ġwood": 755,
  "Ġwooden": 1241,
  "Ġwoodland": 1848,
  "Ġwoods": 3903,
  "Ġwords": 1874,
  "Ġwork": 1698,
  "Ġworked": 571,
  "Ġworker": 4419,
  "Ġworkers": 2391,
  "Ġworking": 411,
  "Ġworks": 4357,
  "Ġworkshop": 5094,
  "Ġworld": 2931,
  "Ġwould": 5359,
  "Ġwound": 3205,
  "Ġwrap": 3094,
  "Ġwrapped": 4984,
  "Ġwrapper": 5782,
  "Ġwrapping": 745,
  "Ġwrench": 3995,
  "Ġwrite": 4217,
  "Ġwrites": 640,
  "Ġwriting": 5265,
  "Ġwritten": 1081,
  "Ġx": 2891,
  "Ġy": 1749,
  "Ġyard": 5316,
  "Ġyear": 2425,
  "Ġyell": 5546,
  "Ġyelled": 598,
  "Ġyelling": 4473,
  "Ġyells": 904,
  "Ġyet": 3411,
  "Ġyou": 956,
  "Ġyoung": 3597,
  "Ġyour": 5033,
  "Ġz": 967,
  "Ġzipper": 1442,
  "Ġzo": 1587,
  "Ġzoo": 1387,
  "Ġzoom": 1642
}
